{
  "version": "1.0",
  "truncation": null,
  "padding": null,
  "added_tokens": [
    {
      "id": 0,
      "content": "<s>",
      "single_word": false,
      "lstrip": false,
      "rstrip": false,
      "normalized": false,
      "special": true
    },
    {
      "id": 1,
      "content": "</s>",
      "single_word": false,
      "lstrip": false,
      "rstrip": false,
      "normalized": false,
      "special": true
    },
    {
      "id": 2,
      "content": "<pad>",
      "single_word": false,
      "lstrip": false,
      "rstrip": false,
      "normalized": false,
      "special": true
    },
    {
      "id": 3,
      "content": "<unk>",
      "single_word": false,
      "lstrip": false,
      "rstrip": false,
      "normalized": false,
      "special": true
    },
    {
      "id": 4,
      "content": "User:",
      "single_word": false,
      "lstrip": false,
      "rstrip": false,
      "normalized": false,
      "special": true
    },
    {
      "id": 5,
      "content": "Assistant:",
      "single_word": false,
      "lstrip": false,
      "rstrip": false,
      "normalized": false,
      "special": true
    }
  ],
  "normalizer": null,
  "pre_tokenizer": {
    "type": "ByteLevel",
    "add_prefix_space": true,
    "trim_offsets": true,
    "use_regex": true
  },
  "post_processor": null,
  "decoder": null,
  "model": {
    "type": "BPE",
    "dropout": null,
    "unk_token": null,
    "continuing_subword_prefix": null,
    "end_of_word_suffix": null,
    "fuse_unk": false,
    "byte_fallback": false,
    "ignore_merges": false,
    "vocab": {
      "SKL_ZENITH_PROPRIETARY_2026": 271227292233,
      "<s>": 0,
      "</s>": 1,
      "<pad>": 2,
      "<unk>": 3,
      "User:": 4,
      "Assistant:": 5,
      "!": 6,
      "\"": 7,
      "#": 8,
      "$": 9,
      "%": 10,
      "&": 11,
      "'": 12,
      "(": 13,
      ")": 14,
      "*": 15,
      "+": 16,
      ",": 17,
      "-": 18,
      ".": 19,
      "/": 20,
      "0": 21,
      "1": 22,
      "2": 23,
      "3": 24,
      "4": 25,
      "5": 26,
      "6": 27,
      "7": 28,
      "8": 29,
      "9": 30,
      ":": 31,
      ";": 32,
      "<": 33,
      "=": 34,
      ">": 35,
      "?": 36,
      "@": 37,
      "A": 38,
      "B": 39,
      "C": 40,
      "D": 41,
      "E": 42,
      "F": 43,
      "G": 44,
      "H": 45,
      "I": 46,
      "J": 47,
      "K": 48,
      "L": 49,
      "M": 50,
      "N": 51,
      "O": 52,
      "P": 53,
      "Q": 54,
      "R": 55,
      "S": 56,
      "T": 57,
      "U": 58,
      "V": 59,
      "W": 60,
      "X": 61,
      "Y": 62,
      "Z": 63,
      "[": 64,
      "\\": 65,
      "]": 66,
      "^": 67,
      "_": 68,
      "`": 69,
      "a": 70,
      "b": 71,
      "c": 72,
      "d": 73,
      "e": 74,
      "f": 75,
      "g": 76,
      "h": 77,
      "i": 78,
      "j": 79,
      "k": 80,
      "l": 81,
      "m": 82,
      "n": 83,
      "o": 84,
      "p": 85,
      "q": 86,
      "r": 87,
      "s": 88,
      "t": 89,
      "u": 90,
      "v": 91,
      "w": 92,
      "x": 93,
      "y": 94,
      "z": 95,
      "{": 96,
      "|": 97,
      "}": 98,
      "~": 99,
      "¡": 100,
      "¢": 101,
      "£": 102,
      "¤": 103,
      "¥": 104,
      "¦": 105,
      "§": 106,
      "¨": 107,
      "©": 108,
      "ª": 109,
      "«": 110,
      "¬": 111,
      "®": 112,
      "¯": 113,
      "°": 114,
      "±": 115,
      "²": 116,
      "³": 117,
      "´": 118,
      "µ": 119,
      "¶": 120,
      "·": 121,
      "¸": 122,
      "¹": 123,
      "º": 124,
      "»": 125,
      "¼": 126,
      "½": 127,
      "¾": 128,
      "¿": 129,
      "Â": 130,
      "Ã": 131,
      "Ä": 132,
      "Å": 133,
      "Æ": 134,
      "Ç": 135,
      "È": 136,
      "É": 137,
      "Ê": 138,
      "Ë": 139,
      "Ì": 140,
      "Í": 141,
      "Î": 142,
      "Ï": 143,
      "Ð": 144,
      "Ñ": 145,
      "Ò": 146,
      "Ó": 147,
      "Ô": 148,
      "Õ": 149,
      "Ö": 150,
      "×": 151,
      "Ø": 152,
      "Ù": 153,
      "Ú": 154,
      "Û": 155,
      "Ü": 156,
      "Ý": 157,
      "Þ": 158,
      "ß": 159,
      "à": 160,
      "á": 161,
      "â": 162,
      "ã": 163,
      "ä": 164,
      "å": 165,
      "æ": 166,
      "ç": 167,
      "è": 168,
      "é": 169,
      "ê": 170,
      "ë": 171,
      "ì": 172,
      "í": 173,
      "î": 174,
      "ï": 175,
      "ð": 176,
      "ñ": 177,
      "ó": 178,
      "Ċ": 179,
      "Ġ": 180,
      "ġ": 181,
      "Ģ": 182,
      "ģ": 183,
      "Ĥ": 184,
      "ĥ": 185,
      "Ħ": 186,
      "ħ": 187,
      "Ĩ": 188,
      "ĩ": 189,
      "Ī": 190,
      "ī": 191,
      "Ĭ": 192,
      "ĭ": 193,
      "Į": 194,
      "į": 195,
      "İ": 196,
      "ı": 197,
      "Ĳ": 198,
      "ĳ": 199,
      "Ĵ": 200,
      "ĵ": 201,
      "Ķ": 202,
      "ķ": 203,
      "ĸ": 204,
      "Ĺ": 205,
      "ĺ": 206,
      "Ļ": 207,
      "ļ": 208,
      "Ľ": 209,
      "ľ": 210,
      "Ŀ": 211,
      "ŀ": 212,
      "Ł": 213,
      "ł": 214,
      "Ń": 215,
      "Ġt": 216,
      "Ġa": 217,
      "he": 218,
      "in": 219,
      "re": 220,
      "Ġthe": 221,
      "on": 222,
      "er": 223,
      "Ġs": 224,
      "Ġw": 225,
      "at": 226,
      "Ġo": 227,
      "en": 228,
      "Ġc": 229,
      "it": 230,
      "is": 231,
      "an": 232,
      "or": 233,
      "Ġb": 234,
      "es": 235,
      "ed": 236,
      "Ġf": 237,
      "Ġp": 238,
      "ing": 239,
      "ou": 240,
      "Ġan": 241,
      "al": 242,
      "Ġto": 243,
      "ar": 244,
      "Ġm": 245,
      "Ġin": 246,
      "Ġof": 247,
      "Ġd": 248,
      "Ġh": 249,
      "as": 250,
      "ic": 251,
      "ĠĊ": 252,
      "âĢ": 253,
      "Ġand": 254,
      "Ġth": 255,
      "le": 256,
      "ion": 257,
      "om": 258,
      "ent": 259,
      "ll": 260,
      "ĠT": 261,
      "Ġn": 262,
      "Ġl": 263,
      "Ġre": 264,
      "st": 265,
      "ve": 266,
      "Ġe": 267,
      "ly": 268,
      "ro": 269,
      "Ġg": 270,
      "Ġbe": 271,
      "id": 272,
      "ĠI": 273,
      "ut": 274,
      "ĠS": 275,
      "ac": 276,
      "ĠA": 277,
      "ot": 278,
      "Ġthat": 279,
      "Ġon": 280,
      "ay": 281,
      "et": 282,
      "im": 283,
      "Ġis": 284,
      "am": 285,
      "ad": 286,
      "ow": 287,
      "se": 288,
      "ig": 289,
      "Ġfor": 290,
      "âĢĻ": 291,
      "ĠC": 292,
      "ver": 293,
      "ct": 294,
      "ur": 295,
      "ld": 296,
      "Ġu": 297,
      "Ġst": 298,
      "Ġy": 299,
      "ĠM": 300,
      "Ġit": 301,
      "Ġhe": 302,
      "ir": 303,
      "ation": 304,
      "ĠB": 305,
      "ith": 306,
      "Ġwh": 307,
      "ce": 308,
      "ĠThe": 309,
      "ter": 310,
      "ol": 311,
      "Ġwe": 312,
      "il": 313,
      "ĠâĢ": 314,
      "Ġwith": 315,
      "Ġas": 316,
      "ĠP": 317,
      "ch": 318,
      "ill": 319,
      "ĠW": 320,
      "nd": 321,
      "Ġwas": 322,
      "Ġyou": 323,
      "ers": 324,
      "ĠH": 325,
      "ke": 326,
      "Ġcon": 327,
      "Ġde": 328,
      "Ġr": 329,
      "her": 330,
      "if": 331,
      "ĠD": 332,
      "ate": 333,
      "ag": 334,
      "Ġat": 335,
      "ĠR": 336,
      "ĠF": 337,
      "Ġha": 338,
      "Ġse": 339,
      "Ġpro": 340,
      "ul": 341,
      "ore": 342,
      "ist": 343,
      "pp": 344,
      "ment": 345,
      "Ġ1": 346,
      "ri": 347,
      "Ġare": 348,
      "est": 349,
      "us": 350,
      "Ġcom": 351,
      "and": 352,
      "ain": 353,
      "op": 354,
      "Ġ2": 355,
      "ĠN": 356,
      "igh": 357,
      "Ġ(": 358,
      "rom": 359,
      "ort": 360,
      "od": 361,
      "Ġne": 362,
      "Ġex": 363,
      "um": 364,
      "ĠG": 365,
      "un": 366,
      "ant": 367,
      "res": 368,
      "ab": 369,
      "ĠâĢľ": 370,
      "ĠL": 371,
      "Ġnot": 372,
      "ess": 373,
      "âĢĿ": 374,
      "Ġv": 375,
      "ity": 376,
      "em": 377,
      "ould": 378,
      "Ġhave": 379,
      "Ġor": 380,
      "th": 381,
      "Ġby": 382,
      "os": 383,
      "ive": 384,
      "Ġfrom": 385,
      "Ġal": 386,
      "ĠE": 387,
      "oc": 388,
      "el": 389,
      "Ġsu": 390,
      "art": 391,
      "'s": 392,
      "Ġsh": 393,
      "nt": 394,
      "ĠO": 395,
      "Ġthis": 396,
      "qu": 397,
      "ight": 398,
      "pe": 399,
      "ust": 400,
      "Ġle": 401,
      "Ġ\"": 402,
      "end": 403,
      "ies": 404,
      "Ġch": 405,
      "ĠJ": 406,
      "out": 407,
      "Ġab": 408,
      "Ġsa": 409,
      "ie": 410,
      "all": 411,
      "ack": 412,
      "red": 413,
      "ally": 414,
      "00": 415,
      "ĠU": 416,
      "Ġhas": 417,
      "Ġpl": 418,
      "ard": 419,
      "Ġgo": 420,
      "ome": 421,
      "iv": 422,
      "ap": 423,
      "gh": 424,
      "Ġhis": 425,
      "ost": 426,
      "our": 427,
      "Ġtr": 428,
      "ear": 429,
      "ast": 430,
      "Ġj": 431,
      "ud": 432,
      "ak": 433,
      "Ġdo": 434,
      "Ġthey": 435,
      "Ġwor": 436,
      "ge": 437,
      "Ġbut": 438,
      "rou": 439,
      "Ġcan": 440,
      "Ġwill": 441,
      "Ġwhe": 442,
      "Ġsaid": 443,
      "Ġk": 444,
      "ich": 445,
      "ok": 446,
      "Ġall": 447,
      "ide": 448,
      "Ġwho": 449,
      "Ġint": 450,
      "ial": 451,
      "ame": 452,
      "ther": 453,
      "ff": 454,
      "Ġout": 455,
      "ans": 456,
      "ong": 457,
      "Ġtheir": 458,
      "ĠTh": 459,
      "ice": 460,
      "ect": 461,
      "ĠIn": 462,
      "ure": 463,
      "pl": 464,
      "age": 465,
      "one": 466,
      "pt": 467,
      "act": 468,
      "Ġme": 469,
      "Ġmore": 470,
      "ike": 471,
      "ous": 472,
      "ions": 473,
      "Ġup": 474,
      "ine": 475,
      "Ġad": 476,
      "ĠK": 477,
      "Ġabout": 478,
      "ber": 479,
      "ra": 480,
      "ated": 481,
      "Ġso": 482,
      "Ġus": 483,
      "ĠSt": 484,
      "Ġone": 485,
      "Ġwere": 486,
      "are": 487,
      "ime": 488,
      "og": 489,
      "ep": 490,
      "cc": 491,
      "Ġhad": 492,
      "ub": 493,
      "ia": 494,
      "Ġim": 495,
      "ind": 496,
      "Ġwould": 497,
      "ue": 498,
      "Ġ20": 499,
      "Ġcl": 500,
      "Ġwhich": 501,
      "ake": 502,
      "Ġag": 503,
      "iz": 504,
      "very": 505,
      "Ġcont": 506,
      "Ġte": 507,
      "Ġcomp": 508,
      "Ġoff": 509,
      "Ġen": 510,
      "Ġun": 511,
      "per": 512,
      "ign": 513,
      "Ġbeen": 514,
      "so": 515,
      "au": 516,
      "ary": 517,
      "ace": 518,
      "ip": 519,
      "ere": 520,
      "Ġyear": 521,
      "ew": 522,
      "Ġlike": 523,
      "ven": 524,
      "Ġinc": 525,
      "ook": 526,
      "ays": 527,
      "ry": 528,
      "Ġman": 529,
      "Ġpe": 530,
      "ose": 531,
      "ĠIt": 532,
      "ite": 533,
      "Ġres": 534,
      "Ġper": 535,
      "able": 536,
      "ass": 537,
      "Ġsp": 538,
      "ord": 539,
      "ire": 540,
      "mer": 541,
      "Ġother": 542,
      "ĠY": 543,
      "Ġsome": 544,
      "ence": 545,
      "ile": 546,
      "ib": 547,
      "ople": 548,
      "ult": 549,
      "Ġ201": 550,
      "ations": 551,
      "ical": 552,
      "Ġthere": 553,
      "ks": 554,
      "Ġar": 555,
      "Ġdis": 556,
      "Ġover": 557,
      "ress": 558,
      "Ġnew": 559,
      "ough": 560,
      "ĠCh": 561,
      "int": 562,
      "Ġbec": 563,
      "own": 564,
      "Ġthan": 565,
      "Ġalso": 566,
      "ance": 567,
      "ount": 568,
      "ree": 569,
      "Ġthem": 570,
      "Ġpart": 571,
      "Ġapp": 572,
      "ru": 573,
      "ail": 574,
      "port": 575,
      "Ġyour": 576,
      "Ġwhen": 577,
      "Ġsc": 578,
      "ond": 579,
      "Ġwhat": 580,
      "orm": 581,
      "Ġpeople": 582,
      "ĠV": 583,
      "fter": 584,
      "Ġqu": 585,
      "ase": 586,
      "av": 587,
      "Ġany": 588,
      "ach": 589,
      "Ġjust": 590,
      "Ġits": 591,
      "Ġ3": 592,
      "Ġtime": 593,
      "Ġkn": 594,
      "Ġher": 595,
      "Ġmy": 596,
      "Ġrec": 597,
      "reat": 598,
      "lic": 599,
      "ĠHe": 600,
      "Ġget": 601,
      "Ġif": 602,
      "ens": 603,
      "ction": 604,
      "du": 605,
      "vel": 606,
      "Ġinto": 607,
      "Ġwork": 608,
      "ound": 609,
      "ian": 610,
      "Ġtw": 611,
      ".âĢĿ": 612,
      "irst": 613,
      "Ġ-": 614,
      "Ġno": 615,
      "ory": 616,
      "ings": 617,
      "ition": 618,
      "ick": 619,
      "ident": 620,
      "Ġour": 621,
      "ors": 622,
      "Ġpre": 623,
      "ob": 624,
      "ove": 625,
      "ang": 626,
      "wn": 627,
      "Ġplay": 628,
      "ause": 629,
      "ink": 630,
      "ish": 631,
      "Ġpol": 632,
      "ade": 633,
      "ark": 634,
      "Ġro": 635,
      "Ġ19": 636,
      "itt": 637,
      "ates": 638,
      "Ġshe": 639,
      "amp": 640,
      "Ġco": 641,
      "ĠAs": 642,
      "Ġafter": 643,
      "vers": 644,
      ",âĢĿ": 645,
      "ious": 646,
      "Ġcould": 647,
      "Ġfirst": 648,
      "Ġhow": 649,
      "ne": 650,
      "nder": 651,
      "ild": 652,
      "Ġacc": 653,
      "Ġhim": 654,
      "aw": 655,
      "Ġpo": 656,
      "ons": 657,
      "Ġatt": 658,
      "Ġfe": 659,
      "ĠWe": 660,
      "Ġpr": 661,
      "'t": 662,
      "Ġonly": 663,
      "ict": 664,
      "hed": 665,
      "ov": 666,
      "Ġtwo": 667,
      "ĠBut": 668,
      "Ġcomm": 669,
      "hing": 670,
      "Ġspe": 671,
      "Ġbl": 672,
      "Ġact": 673,
      "form": 674,
      "Ġser": 675,
      "ĠWh": 676,
      "ft": 677,
      "Ġdec": 678,
      "we": 679,
      "Ġbet": 680,
      ".\"": 681,
      "ĠThis": 682,
      "ning": 683,
      "Ġback": 684,
      "ood": 685,
      "te": 686,
      "ces": 687,
      "Ġmost": 688,
      "ĠâĢĵ": 689,
      "Ġ4": 690,
      "Ġam": 691,
      "ck": 692,
      "ĠAnd": 693,
      "oy": 694,
      "iff": 695,
      "ater": 696,
      "round": 697,
      "sel": 698,
      "rough": 699,
      "Ġdid": 700,
      "Ġagain": 701,
      "Ġdes": 702,
      "ual": 703,
      "Ġunder": 704,
      "ise": 705,
      "Ġwant": 706,
      "day": 707,
      "ĠâĢĶ": 708,
      "rit": 709,
      "Ġcons": 710,
      "lud": 711,
      "tern": 712,
      "Ġnow": 713,
      "man": 714,
      "ull": 715,
      "Ġ$": 716,
      "Ġbecause": 717,
      "ublic": 718,
      "iss": 719,
      "Ġeven": 720,
      "ec": 721,
      "Ġyears": 722,
      "Ġinv": 723,
      "ents": 724,
      "Ġind": 725,
      "Ġknow": 726,
      "ĠUn": 727,
      "Ġneed": 728,
      "Ġsee": 729,
      "Ġ5": 730,
      "Ġadd": 731,
      "ced": 732,
      "Ġevery": 733,
      "ments": 734,
      "old": 735,
      "Ġsec": 736,
      "uch": 737,
      "fore": 738,
      "urn": 739,
      "Ġ[": 740,
      "pect": 741,
      ",\"": 742,
      "Ġmake": 743,
      "ock": 744,
      "Ġsupp": 745,
      "Ġem": 746,
      "Ġthese": 747,
      "ject": 748,
      "..": 749,
      "Ġwhere": 750,
      "ational": 751,
      "oll": 752,
      "vern": 753,
      "ĠTr": 754,
      "Ġbu": 755,
      "xt": 756,
      "oss": 757,
      "Ġev": 758,
      "Ġlook": 759,
      "Ġdon": 760,
      "row": 761,
      "Ġway": 762,
      "Ġmay": 763,
      "Ġdiff": 764,
      "ating": 765,
      "Ġright": 766,
      "Ġbeing": 767,
      "Ġrel": 768,
      "Ġrem": 769,
      "lect": 770,
      "ily": 771,
      "Ġthen": 772,
      "ont": 773,
      "ng": 774,
      "Ġmany": 775,
      "Ġcall": 776,
      "Ġinclud": 777,
      "ump": 778,
      "iew": 779,
      "Ġdef": 780,
      "ason": 781,
      "Ġthink": 782,
      "Ġimp": 783,
      "meric": 784,
      "Ġreg": 785,
      "ased": 786,
      "ied": 787,
      "aking": 788,
      "Ġthrough": 789,
      "rib": 790,
      "Ġfl": 791,
      "ath": 792,
      "Ġpres": 793,
      "Ġshould": 794,
      ").": 795,
      "Ġsy": 796,
      "ited": 797,
      "Ġsay": 798,
      "The": 799,
      "Ġthose": 800,
      "other": 801,
      "uring": 802,
      "Ġvery": 803,
      "les": 804,
      "Ġlast": 805,
      "Ġmuch": 806,
      "ower": 807,
      "ific": 808,
      "ell": 809,
      "Ġstate": 810,
      "ty": 811,
      "ĠRe": 812,
      "hen": 813,
      "ities": 814,
      "Ġshow": 815,
      "arly": 816,
      "und": 817,
      "ics": 818,
      "Ġbr": 819,
      "Ġ200": 820,
      "oth": 821,
      "Ġwell": 822,
      "Ġown": 823,
      "get": 824,
      "ĠNew": 825,
      "ative": 826,
      "Ġph": 827,
      "ting": 828,
      "Ġcount": 829,
      "Ġ<": 830,
      "ĠAmeric": 831,
      "ange": 832,
      "Ġdown": 833,
      "ved": 834,
      "Ġbel": 835,
      "Ġend": 836,
      "Ġuse": 837,
      "Ġdoes": 838,
      "als": 839,
      "ward": 840,
      "Ġass": 841,
      "ince": 842,
      "omet": 843,
      "Ġlong": 844,
      "Ġbefore": 845,
      "Ġgovern": 846,
      "gr": 847,
      "--": 848,
      "Ġmon": 849,
      "ters": 850,
      "up": 851,
      "ible": 852,
      "Ġreport": 853,
      "Ġke": 854,
      "Ġstart": 855,
      "Ġfin": 856,
      "ues": 857,
      "ife": 858,
      "ble": 859,
      "),": 860,
      "ĠAl": 861,
      "ts": 862,
      "ener": 863,
      "olog": 864,
      "tain": 865,
      "ix": 866,
      "Ġsuch": 867,
      "Ġmade": 868,
      "ually": 869,
      "erson": 870,
      "Ġsm": 871,
      "Ġteam": 872,
      "ility": 873,
      "oun": 874,
      "Ġworld": 875,
      "Ġ6": 876,
      "Ġac": 877,
      "âĢĶ": 878,
      "Ġstud": 879,
      "ren": 880,
      "ful": 881,
      "ism": 882,
      "Ġgoing": 883,
      "Ġhel": 884,
      "ists": 885,
      "Ġeff": 886,
      "ek": 887,
      "com": 888,
      "ĠYou": 889,
      "Ġgood": 890,
      "Ġgu": 891,
      "ork": 892,
      "Ġsub": 893,
      "Ġent": 894,
      "ys": 895,
      "Ġagainst": 896,
      "Ġset": 897,
      "Ġsur": 898,
      "its": 899,
      "ars": 900,
      "Ġpoint": 901,
      "self": 902,
      "gan": 903,
      "Ġgame": 904,
      "ĠIf": 905,
      "stem": 906,
      "Ġprodu": 907,
      "ax": 908,
      "roup": 909,
      "Ġlead": 910,
      "alk": 911,
      "illion": 912,
      "Ġstill": 913,
      "ier": 914,
      "imes": 915,
      "Ġwhile": 916,
      "ank": 917,
      "Ġhelp": 918,
      "Ġsays": 919,
      "Ġmin": 920,
      "ween": 921,
      "Ġsim": 922,
      "ms": 923,
      "cy": 924,
      "ving": 925,
      "Ġstr": 926,
      "Ġcol": 927,
      "Ġinst": 928,
      "cess": 929,
      "Ġgr": 930,
      "000": 931,
      "Ġchar": 932,
      "Ġinter": 933,
      "Ġob": 934,
      "Ġconf": 935,
      "Ġed": 936,
      "Ġdisc": 937,
      "ĠFor": 938,
      "Ġthough": 939,
      "Ġtake": 940,
      "Ġdiffere": 941,
      "ool": 942,
      "Ġsame": 943,
      "Ġcr": 944,
      "ution": 945,
      "io": 946,
      "Ġoffic": 947,
      "Ġlaw": 948,
      "Ġbetween": 949,
      "ever": 950,
      "air": 951,
      "Ġprov": 952,
      "ures": 953,
      "uss": 954,
      "Ġop": 955,
      "ĠAr": 956,
      "land": 957,
      "read": 958,
      "ah": 959,
      "ollow": 960,
      "Ġgovernment": 961,
      "ner": 962,
      "arch": 963,
      "Ġhigh": 964,
      "Ġnum": 965,
      "ĠDe": 966,
      "ĠLe": 967,
      "ĠSh": 968,
      "Ġsign": 969,
      "way": 970,
      "hes": 971,
      "led": 972,
      "atch": 973,
      "ĠAn": 974,
      "any": 975,
      "velop": 976,
      "ros": 977,
      "Ġter": 978,
      "ĠThey": 979,
      "ĠCom": 980,
      "Ġsomet": 981,
      ".[": 982,
      "hip": 983,
      "Ġins": 984,
      "gg": 985,
      "ĠIs": 986,
      "Ġreal": 987,
      "cent": 988,
      "Ġref": 989,
      "Ġmem": 990,
      "ames": 991,
      "ather": 992,
      "ave": 993,
      "Ġaround": 994,
      "Ġthree": 995,
      "Ġtrans": 996,
      "Ġrun": 997,
      "Ġmed": 998,
      "Ġ10": 999,
      "az": 1000,
      "Ġ7": 1001,
      "Ġhere": 1002,
      "Ġfound": 1003,
      "ci": 1004,
      "cept": 1005,
      "ves": 1006,
      "Ġsystem": 1007,
      "con": 1008,
      "ouse": 1009,
      "ives": 1010,
      "Ġcour": 1011,
      "Ġreally": 1012,
      "oot": 1013,
      "Ġused": 1014,
      "Ġmod": 1015,
      "Ġexp": 1016,
      "cial": 1017,
      "Ġgroup": 1018,
      "cer": 1019,
      "ĠSe": 1020,
      "Ġsupport": 1021,
      "Ġpublic": 1022,
      "Ġcar": 1023,
      "ale": 1024,
      "ĠThat": 1025,
      "Ġret": 1026,
      "Ġhand": 1027,
      "ĠTrump": 1028,
      "ĠCl": 1029,
      "ins": 1030,
      "Ġgreat": 1031,
      "ense": 1032,
      "ĠThere": 1033,
      "Ġexper": 1034,
      "Ġcur": 1035,
      "irect": 1036,
      "Ġfact": 1037,
      "Ġhapp": 1038,
      "alth": 1039,
      "Ġext": 1040,
      "Ġfam": 1041,
      "Ġcap": 1042,
      "ser": 1043,
      "ying": 1044,
      "Ġrep": 1045,
      "Ġsl": 1046,
      "uth": 1047,
      "ular": 1048,
      "Ġ'": 1049,
      "Ġboth": 1050,
      "Ġwom": 1051,
      "Ġread": 1052,
      "Ġday": 1053,
      "Ġfr": 1054,
      "Ġ8": 1055,
      "ph": 1056,
      "Ġdet": 1057,
      "min": 1058,
      "Ġfind": 1059,
      "ton": 1060,
      "pr": 1061,
      "ices": 1062,
      "Ġduring": 1063,
      "ision": 1064,
      "Ġcre": 1065,
      "Ġdevelop": 1066,
      "Ġmonth": 1067,
      "ĠSo": 1068,
      "Ġperson": 1069,
      "ered": 1070,
      "Ġcent": 1071,
      "oh": 1072,
      "ĠOn": 1073,
      "ines": 1074,
      "Ġbig": 1075,
      "Ġiss": 1076,
      "aj": 1077,
      "Ġsince": 1078,
      "iet": 1079,
      "Ġpolit": 1080,
      "ivers": 1081,
      "Ġfollow": 1082,
      "Ġwar": 1083,
      "Ġtold": 1084,
      "med": 1085,
      "Ġlar": 1086,
      "ically": 1087,
      "akes": 1088,
      "ording": 1089,
      "ared": 1090,
      "Ġ9": 1091,
      "ĠAd": 1092,
      "ages": 1093,
      "Ġfew": 1094,
      "ene": 1095,
      "Ġweek": 1096,
      "Ġleg": 1097,
      "Ġgener": 1098,
      "orth": 1099,
      "att": 1100,
      "Ġexpl": 1101,
      "Ġlot": 1102,
      "Ġbelie": 1103,
      "ĠFr": 1104,
      "Ġrequ": 1105,
      "Ġtoo": 1106,
      "der": 1107,
      "chool": 1108,
      "ash": 1109,
      "ric": 1110,
      "rent": 1111,
      "ention": 1112,
      "ĠPro": 1113,
      "Ġcontin": 1114,
      "Ġcle": 1115,
      "Ġresp": 1116,
      "Ġfil": 1117,
      "Ġopp": 1118,
      "ĠAt": 1119,
      "ata": 1120,
      "ience": 1121,
      "Ġsoc": 1122,
      "Ġput": 1123,
      "ĠAss": 1124,
      "ness": 1125,
      "ized": 1126,
      "ĠHow": 1127,
      "Ġdifferent": 1128,
      "bers": 1129,
      "Ġinvest": 1130,
      "Ġart": 1131,
      "Ġprot": 1132,
      "Ġsomething": 1133,
      "Ġanother": 1134,
      "Ġloc": 1135,
      "ody": 1136,
      "ets": 1137,
      "ize": 1138,
      "ute": 1139,
      "thing": 1140,
      "Ġplan": 1141,
      "ĠâĢĺ": 1142,
      "Ġinf": 1143,
      "erest": 1144,
      "Ġpower": 1145,
      "Ġmet": 1146,
      "Ġcor": 1147,
      "ex": 1148,
      "Ġcommun": 1149,
      "ger": 1150,
      "Ġlife": 1151,
      "Ġfar": 1152,
      "Ġpass": 1153,
      "uc": 1154,
      "Ġrele": 1155,
      "Ġposs": 1156,
      "Ġche": 1157,
      "ross": 1158,
      "Ġvot": 1159,
      "Ġhead": 1160,
      "ned": 1161,
      "Ġask": 1162,
      "iness": 1163,
      "Ġthings": 1164,
      "Ġdep": 1165,
      "Ġcamp": 1166,
      "Ġmight": 1167,
      "Ġbo": 1168,
      "Ġnever": 1169,
      "Ġ0": 1170,
      "the": 1171,
      "ient": 1172,
      "Ġeach": 1173,
      "ĠRep": 1174,
      "view": 1175,
      "Ġbus": 1176,
      "Ġdem": 1177,
      "ik": 1178,
      "ital": 1179,
      "Ġmark": 1180,
      "Ġchild": 1181,
      "arl": 1182,
      "ants": 1183,
      "Ġnext": 1184,
      "Ġquest": 1185,
      "Ġsecond": 1186,
      "ret": 1187,
      "Ġfeel": 1188,
      "ee": 1189,
      "ple": 1190,
      "ield": 1191,
      "ĠUS": 1192,
      "Ġadv": 1193,
      "Ġopen": 1194,
      "Ġcome": 1195,
      "Ġallow": 1196,
      "Ġbest": 1197,
      "ittle": 1198,
      "ĠBl": 1199,
      "Ġgot": 1200,
      "Ġ.": 1201,
      "Ġseem": 1202,
      "co": 1203,
      "son": 1204,
      "rat": 1205,
      "ug": 1206,
      "Ġdirect": 1207,
      "gram": 1208,
      "ten": 1209,
      "Ġwr": 1210,
      "Ġpercent": 1211,
      "Ġincre": 1212,
      "orn": 1213,
      "Ġpost": 1214,
      "conom": 1215,
      "Ġresult": 1216,
      "Ġhome": 1217,
      "ired": 1218,
      "Ġav": 1219,
      "Ġcare": 1220,
      "gy": 1221,
      "Ġimport": 1222,
      "cl": 1223,
      "20": 1224,
      "Ġdist": 1225,
      "Ġhum": 1226,
      "Ġpri": 1227,
      "Ġbuild": 1228,
      "Ġcontro": 1229,
      "Ġincluding": 1230,
      "ged": 1231,
      "less": 1232,
      "Ġel": 1233,
      "Ġhard": 1234,
      "ama": 1235,
      "osed": 1236,
      "Ġplace": 1237,
      "Ġwithout": 1238,
      "Ġide": 1239,
      "Ġinform": 1240,
      "chn": 1241,
      "Ġcomple": 1242,
      "Ġstand": 1243,
      "oney": 1244,
      "Ġnumber": 1245,
      "Ġpartic": 1246,
      "ral": 1247,
      "ĠInd": 1248,
      "Ġlet": 1249,
      "ĠShe": 1250,
      "Ġmillion": 1251,
      "riend": 1252,
      "aim": 1253,
      "ately": 1254,
      "Ġproble": 1255,
      "Ġtop": 1256,
      "Ġgl": 1257,
      "Ġcountry": 1258,
      "Ġmov": 1259,
      "Ġrecent": 1260,
      "ably": 1261,
      "Ġinterest": 1262,
      "Ġbeh": 1263,
      "Ġbetter": 1264,
      "__": 1265,
      "Ġtri": 1266,
      "ĠQ": 1267,
      "ished": 1268,
      "ĠZ": 1269,
      "Ġfour": 1270,
      "ways": 1271,
      "ration": 1272,
      "ĠWhen": 1273,
      "Ġappro": 1274,
      "Ġbro": 1275,
      "Ġless": 1276,
      "Ġlittle": 1277,
      "Ġmil": 1278,
      "Ġturn": 1279,
      "Ġpop": 1280,
      "ajor": 1281,
      "ĠPh": 1282,
      "Ġcase": 1283,
      "ĠBe": 1284,
      "Ġcalled": 1285,
      "line": 1286,
      "Ġseason": 1287,
      "Ġmain": 1288,
      "ency": 1289,
      "Ġrest": 1290,
      "app": 1291,
      "We": 1292,
      "ract": 1293,
      "Ġdr": 1294,
      "ised": 1295,
      "Ġattack": 1296,
      "Ġmove": 1297,
      "Ġann": 1298,
      "Ġkeep": 1299,
      "Ġleft": 1300,
      "Ġfull": 1301,
      "Ġfun": 1302,
      "ling": 1303,
      "Ġserv": 1304,
      "Ġeconom": 1305,
      "Ġeffect": 1306,
      "ider": 1307,
      "ature": 1308,
      "inal": 1309,
      "Ġprev": 1310,
      "ĠWhat": 1311,
      "Ġdidn": 1312,
      "ina": 1313,
      "Ġpolice": 1314,
      "ĠAmerican": 1315,
      "ted": 1316,
      "Ġpos": 1317,
      "Ġtest": 1318,
      "Ġprogram": 1319,
      "Ġval": 1320,
      "me": 1321,
      "ode": 1322,
      "Ġpay": 1323,
      "uro": 1324,
      "ĠOb": 1325,
      "Ġusing": 1326,
      "Ġnews": 1327,
      "Ġschool": 1328,
      "Ġform": 1329,
      "Ġwin": 1330,
      "nce": 1331,
      "Ġdata": 1332,
      "ology": 1333,
      "be": 1334,
      "Ġmar": 1335,
      "ready": 1336,
      "Ġsmall": 1337,
      "Ġlevel": 1338,
      "Ġlist": 1339,
      "Ġprocess": 1340,
      "ĠGo": 1341,
      "iving": 1342,
      "to": 1343,
      "Ġchange": 1344,
      "ird": 1345,
      "ploy": 1346,
      "ined": 1347,
      "ains": 1348,
      "Ġpresident": 1349,
      "Ġcompany": 1350,
      "ided": 1351,
      "ĠCan": 1352,
      "Ġeas": 1353,
      "Ġcurrent": 1354,
      "Ġwomen": 1355,
      "uck": 1356,
      "Ġdri": 1357,
      "reen": 1358,
      "Ġprom": 1359,
      "10": 1360,
      "lection": 1361,
      "Ġmoney": 1362,
      "ĠAll": 1363,
      "Ġrece": 1364,
      "ruct": 1365,
      "Ġalready": 1366,
      "'re": 1367,
      "Ġbre": 1368,
      "ĠUnited": 1369,
      "Ġprof": 1370,
      "Ġmat": 1371,
      "Ġhist": 1372,
      "ians": 1373,
      "Ġspec": 1374,
      "Ġunt": 1375,
      "Ġty": 1376,
      "Ġmajor": 1377,
      "Ġbusiness": 1378,
      "Ġlater": 1379,
      "erv": 1380,
      "Ġclass": 1381,
      "istant": 1382,
      "used": 1383,
      "iver": 1384,
      "Ġexpect": 1385,
      "Ġtechn": 1386,
      "Ġsol": 1387,
      "stand": 1388,
      "Ġwhy": 1389,
      "aign": 1390,
      "Ġbook": 1391,
      "Ġthing": 1392,
      "ertain": 1393,
      "Ġofficial": 1394,
      "Ġalways": 1395,
      "Ġproject": 1396,
      "outh": 1397,
      "Ġhealth": 1398,
      "rap": 1399,
      "Ġorgan": 1400,
      "Ġdesign": 1401,
      "ural": 1402,
      "ĠChr": 1403,
      "Ġinformation": 1404,
      "ohn": 1405,
      "Ġtalk": 1406,
      "aff": 1407,
      "Ġclaim": 1408,
      "ior": 1409,
      "Ġrese": 1410,
      "Ġ--": 1411,
      "ĠMr": 1412,
      "iversity": 1413,
      "Ġable": 1414,
      "Ġjob": 1415,
      "Ġvis": 1416,
      "Ġ18": 1417,
      "ead": 1418,
      "Ġsk": 1419,
      "ases": 1420,
      "Ġchang": 1421,
      "Ġgrow": 1422,
      "uthor": 1423,
      "ĠMar": 1424,
      "It": 1425,
      "Ġpur": 1426,
      "ption": 1427,
      "Ġmust": 1428,
      "Ġhappen": 1429,
      "ards": 1430,
      "Ġstory": 1431,
      "ĠPl": 1432,
      "Ġedit": 1433,
      "ope": 1434,
      "Ġoper": 1435,
      "Ġaway": 1436,
      "Ġfree": 1437,
      "ĠSp": 1438,
      "Ġvar": 1439,
      "Ġpast": 1440,
      "ury": 1441,
      "iven": 1442,
      "here": 1443,
      "Ġimportant": 1444,
      "Ġest": 1445,
      "ission": 1446,
      "ample": 1447,
      "wit": 1448,
      "Ġcity": 1449,
      "Ġcost": 1450,
      "ccess": 1451,
      "Ġpat": 1452,
      "ĠPres": 1453,
      "ĠOne": 1454,
      "Ġold": 1455,
      "ĠSc": 1456,
      "Ġ12": 1457,
      "Ġkill": 1458,
      "ney": 1459,
      "Ġleast": 1460,
      "Ġcampaign": 1461,
      "Ġtell": 1462,
      "ured": 1463,
      "urity": 1464,
      "Ġtax": 1465,
      "Ġaff": 1466,
      "ending": 1467,
      "Ġpolic": 1468,
      "Ġ=": 1469,
      "ox": 1470,
      "acy": 1471,
      "ern": 1472,
      "...": 1473,
      "Ġconst": 1474,
      "ĠOr": 1475,
      "Ġsit": 1476,
      "Ġstre": 1477,
      "ĠJohn": 1478,
      "Ġdoesn": 1479,
      "Ġfriend": 1480,
      "Ġkind": 1481,
      "gin": 1482,
      "Ġrecord": 1483,
      "Ġmen": 1484,
      "Ġlarge": 1485,
      "ron": 1486,
      "ĠTo": 1487,
      "side": 1488,
      "ained": 1489,
      "Ġenough": 1490,
      "ides": 1491,
      "Ġfamily": 1492,
      "ality": 1493,
      "Ġ</": 1494,
      "50": 1495,
      "Ġdays": 1496,
      "ott": 1497,
      "ĠCon": 1498,
      "Ġmaking": 1499,
      "Ġcame": 1500,
      "ror": 1501,
      "ĠRepublic": 1502,
      "Ġfore": 1503,
      "ional": 1504,
      "Ġview": 1505,
      "ĠComm": 1506,
      "oad": 1507,
      "ush": 1508,
      "eral": 1509,
      "augh": 1510,
      "Ġuntil": 1511,
      "Ġelect": 1512,
      "Ġpolitical": 1513,
      "ocrat": 1514,
      "pped": 1515,
      "arent": 1516,
      "els": 1517,
      "tt": 1518,
      "ĠNo": 1519,
      "Ġintern": 1520,
      "ĠDem": 1521,
      "ator": 1522,
      "ister": 1523,
      "alf": 1524,
      "Ġair": 1525,
      "ĠMay": 1526,
      "ley": 1527,
      "anc": 1528,
      "aps": 1529,
      "ering": 1530,
      "Ġdeb": 1531,
      "Ġdeal": 1532,
      "Ġbecome": 1533,
      "gu": 1534,
      "Ġvide": 1535,
      "ived": 1536,
      "ries": 1537,
      "Ġes": 1538,
      "Ġline": 1539,
      "Ġactually": 1540,
      "Ġhuman": 1541,
      "ising": 1542,
      "ember": 1543,
      "Ġmean": 1544,
      "ĠUser": 1545,
      "Ġworking": 1546,
      "ified": 1547,
      "sc": 1548,
      "Ġfund": 1549,
      "ĠAssistant": 1550,
      "aining": 1551,
      "ware": 1552,
      "work": 1553,
      "Ġtook": 1554,
      "Ġformer": 1555,
      "Ġoften": 1556,
      "most": 1557,
      "bs": 1558,
      "Ġgive": 1559,
      "ĠEuro": 1560,
      "ĠSy": 1561,
      "ĠMc": 1562,
      "ony": 1563,
      "Ġve": 1564,
      "Ġdel": 1565,
      "Ġever": 1566,
      "Ġorder": 1567,
      "Ġname": 1568,
      "ĠPresident": 1569,
      "Ġaccording": 1570,
      "iol": 1571,
      "Ġword": 1572,
      "Ġreturn": 1573,
      "ĠWith": 1574,
      "Ġsing": 1575,
      "ization": 1576,
      "by": 1577,
      "ane": 1578,
      "Ġbit": 1579,
      "aring": 1580,
      "ison": 1581,
      "ither": 1582,
      "Ġwon": 1583,
      "Ġperform": 1584,
      "Ġsever": 1585,
      "Ġ199": 1586,
      "iber": 1587,
      "Ġtimes": 1588,
      "----": 1589,
      "ann": 1590,
      "ĠRuss": 1591,
      "oint": 1592,
      "ĠBr": 1593,
      "icle": 1594,
      "Ġmarket": 1595,
      "Ġ11": 1596,
      "idd": 1597,
      "ges": 1598,
      "Ġra": 1599,
      "Ġnight": 1600,
      "Ġmeet": 1601,
      "Ġbas": 1602,
      "Ġcharac": 1603,
      "Ġla": 1604,
      "uture": 1605,
      "year": 1606,
      "Ġsocial": 1607,
      "ĠAm": 1608,
      "wh": 1609,
      "idence": 1610,
      "iqu": 1611,
      "Ġlear": 1612,
      "Ġdev": 1613,
      "Ġgames": 1614,
      "for": 1615,
      "Ġevent": 1616,
      "Ġearly": 1617,
      "âĢ¦": 1618,
      "Ġtoday": 1619,
      "ĠObama": 1620,
      "Ġ15": 1621,
      "Ġdoing": 1622,
      "Ġseveral": 1623,
      "Ġappear": 1624,
      "ĠAfter": 1625,
      "iam": 1626,
      "Ġfac": 1627,
      "ĠCol": 1628,
      "rop": 1629,
      "Ġhaving": 1630,
      "ĠTe": 1631,
      "Ġcertain": 1632,
      "aken": 1633,
      "Ġyoung": 1634,
      "Ġ/": 1635,
      "Ġpress": 1636,
      "Ġocc": 1637,
      "Ġmedia": 1638,
      "Ġsure": 1639,
      "Ġsuccess": 1640,
      "Ġwhether": 1641,
      "ched": 1642,
      "Ġmilit": 1643,
      "Ġwater": 1644,
      "Ġseen": 1645,
      "Th": 1646,
      "raft": 1647,
      "Ġquestion": 1648,
      "Ġfive": 1649,
      "ots": 1650,
      "br": 1651,
      "ĠIm": 1652,
      "Ġlikely": 1653,
      "Ġcontrol": 1654,
      "ĠEx": 1655,
      "mber": 1656,
      "Ġprop": 1657,
      "Ġcrit": 1658,
      "ĠEurope": 1659,
      "Ġshort": 1660,
      "ortun": 1661,
      "ĠYork": 1662,
      "iously": 1663,
      "Ġplayers": 1664,
      "Ġwent": 1665,
      "Ġinvol": 1666,
      "Ġexample": 1667,
      "ories": 1668,
      "Ġside": 1669,
      "Ġequ": 1670,
      "sh": 1671,
      "Ġmembers": 1672,
      "Ġchildren": 1673,
      "Ġ,": 1674,
      "ER": 1675,
      "Ġhour": 1676,
      "Ġdesc": 1677,
      "artment": 1678,
      "ium": 1679,
      "Ġalong": 1680,
      "19": 1681,
      "Ġvers": 1682,
      "ĠNot": 1683,
      "Ġland": 1684,
      "Ġcho": 1685,
      "Ġonce": 1686,
      "ulation": 1687,
      "ĠStates": 1688,
      "Ġeng": 1689,
      "lf": 1690,
      "Ġ]": 1691,
      "ubl": 1692,
      "Ġpossible": 1693,
      "Ġwithin": 1694,
      "Ġproduct": 1695,
      "Ġauthor": 1696,
      "enn": 1697,
      "Ġpot": 1698,
      "Ġcourse": 1699,
      "Ġactiv": 1700,
      "Ġmonths": 1701,
      "Ġdone": 1702,
      "ential": 1703,
      "Ġconcer": 1704,
      "ended": 1705,
      "let": 1706,
      "Ġfight": 1707,
      "ĠCo": 1708,
      "Ġamong": 1709,
      "uff": 1710,
      "Ġwrit": 1711,
      "Ġavail": 1712,
      "Ġunderstand": 1713,
      "ivid": 1714,
      "ggest": 1715,
      "Ġthought": 1716,
      "ball": 1717,
      "ially": 1718,
      "une": 1719,
      "Ġlocal": 1720,
      "vert": 1721,
      "empt": 1722,
      "nect": 1723,
      "ats": 1724,
      "iron": 1725,
      "ĠState": 1726,
      "iting": 1727,
      "itive": 1728,
      "Ġfuture": 1729,
      "Ġacross": 1730,
      "Ġinvestig": 1731,
      "Ġant": 1732,
      "ĠPol": 1733,
      "Ġmeans": 1734,
      "Ġnon": 1735,
      "imate": 1736,
      "Ġcommunity": 1737,
      "Ġhold": 1738,
      "Ġprotect": 1739,
      "Ġreason": 1740,
      "Ġmus": 1741,
      "rew": 1742,
      "ster": 1743,
      "ague": 1744,
      "por": 1745,
      "Ġsex": 1746,
      "iety": 1747,
      "urs": 1748,
      "Ġyet": 1749,
      "Ġproblem": 1750,
      "gress": 1751,
      "Ġsuggest": 1752,
      "Ġviol": 1753,
      "ĠHowever": 1754,
      "ederal": 1755,
      "Ġknown": 1756,
      "Ġfail": 1757,
      "Ġ#": 1758,
      "ones": 1759,
      "11": 1760,
      "Ġstrong": 1761,
      "ourn": 1762,
      "Ġpriv": 1763,
      "Ġothers": 1764,
      "Ġasked": 1765,
      "Ġ2016": 1766,
      "book": 1767,
      "ued": 1768,
      "Ġorig": 1769,
      "ald": 1770,
      "Ġ&": 1771,
      "ĠDemocrat": 1772,
      "ĠUniversity": 1773,
      "Ġbelieve": 1774,
      "oci": 1775,
      "Ġprob": 1776,
      "ĠPr": 1777,
      "leg": 1778,
      "allen": 1779,
      "aged": 1780,
      "Ġgiven": 1781,
      "not": 1782,
      "verage": 1783,
      "orld": 1784,
      "Ġident": 1785,
      "Ġlight": 1786,
      "ĠChrist": 1787,
      "ler": 1788,
      "Ġvideo": 1789,
      "Ġmakes": 1790,
      "ĠFl": 1791,
      "Ġca": 1792,
      "ĠWhile": 1793,
      "Ġgetting": 1794,
      "back": 1795,
      "Ġ16": 1796,
      "ances": 1797,
      "arm": 1798,
      "ĠHouse": 1799,
      "Ġnational": 1800,
      "Ġlim": 1801,
      "Ġcut": 1802,
      "Ġreported": 1803,
      "ober": 1804,
      "itions": 1805,
      "ĠMin": 1806,
      "Ġannoun": 1807,
      "ĠCent": 1808,
      "ored": 1809,
      "Ġcond": 1810,
      "Ġsent": 1811,
      "Ġnet": 1812,
      "ensive": 1813,
      "Ġavailable": 1814,
      "ĠSen": 1815,
      "Ġindust": 1816,
      "ands": 1817,
      "ource": 1818,
      "fe": 1819,
      "selves": 1820,
      "ĠX": 1821,
      "Ġago": 1822,
      "Ġemploy": 1823,
      "Ġ30": 1824,
      "inc": 1825,
      "ĠÂ": 1826,
      "Ġlow": 1827,
      "urther": 1828,
      "rest": 1829,
      "Ġmom": 1830,
      "Ġseries": 1831,
      "Ġissue": 1832,
      "Ġi": 1833,
      "Ġaccount": 1834,
      "my": 1835,
      "lement": 1836,
      "Ġclose": 1837,
      "Ġpar": 1838,
      "Ġcreat": 1839,
      "Ġdeath": 1840,
      "12": 1841,
      "Ġalmost": 1842,
      "Ġidea": 1843,
      "erman": 1844,
      "ilar": 1845,
      "aster": 1846,
      "'ve": 1847,
      "Ġhistory": 1848,
      "Ġlove": 1849,
      "ashing": 1850,
      "Ġ2015": 1851,
      "ĠDon": 1852,
      "Ġfoc": 1853,
      "Ġstarted": 1854,
      "though": 1855,
      "gether": 1856,
      "Ġtogether": 1857,
      "Ġparty": 1858,
      "Ġtrad": 1859,
      "use": 1860,
      "Ġbased": 1861,
      "Ġhig": 1862,
      "erence": 1863,
      "itional": 1864,
      "ustom": 1865,
      "Ġpract": 1866,
      "Ġfilm": 1867,
      "Ġexperience": 1868,
      "Ġclear": 1869,
      ".,": 1870,
      "rael": 1871,
      "ĠAmerica": 1872,
      "ai": 1873,
      "ividual": 1874,
      "resent": 1875,
      "ĠNe": 1876,
      "Ġfollowing": 1877,
      "hers": 1878,
      "Ġtrying": 1879,
      "Ġimpro": 1880,
      "ination": 1881,
      "raw": 1882,
      "ability": 1883,
      "30": 1884,
      "orts": 1885,
      "ief": 1886,
      "ream": 1887,
      "Ġcomes": 1888,
      "Ġlive": 1889,
      "ring": 1890,
      "AT": 1891,
      "Ġhalf": 1892,
      "uly": 1893,
      "ef": 1894,
      "ĠCanad": 1895,
      "Ġanything": 1896,
      "ĠSu": 1897,
      "ien": 1898,
      "ĠSec": 1899,
      "Ġaccess": 1900,
      "Ġanal": 1901,
      "Ġarea": 1902,
      "go": 1903,
      "minist": 1904,
      "utes": 1905,
      "Ġsix": 1906,
      "ĠBro": 1907,
      "ĠGr": 1908,
      "ails": 1909,
      "Ġcourt": 1910,
      "reed": 1911,
      "Ġpresent": 1912,
      "gest": 1913,
      "Ġisn": 1914,
      "rict": 1915,
      "ĠMan": 1916,
      "Ġbene": 1917,
      "cially": 1918,
      "Ġrul": 1919,
      "unch": 1920,
      "Ġmiss": 1921,
      "Ġris": 1922,
      "pro": 1923,
      "Ġadded": 1924,
      "Ġdiscuss": 1925,
      "aper": 1926,
      "Ġbad": 1927,
      "of": 1928,
      "Ġbehind": 1929,
      "inton": 1930,
      "Ġbill": 1931,
      "Ġ2014": 1932,
      "Ġproper": 1933,
      "osp": 1934,
      "Ġrather": 1935,
      "Ġcomplete": 1936,
      "ators": 1937,
      "Ġlooking": 1938,
      "eb": 1939,
      "Ġmilitary": 1940,
      "uge": 1941,
      "viron": 1942,
      "Ġindividual": 1943,
      "Ġcult": 1944,
      "Ġnear": 1945,
      "Ġentire": 1946,
      "ids": 1947,
      "wards": 1948,
      "Ġface": 1949,
      "Ġtot": 1950,
      "ĠEng": 1951,
      "ĠNow": 1952,
      "Ġpolicy": 1953,
      "Ġsaying": 1954,
      "Ġmor": 1955,
      "Ġ14": 1956,
      "ĠIsrael": 1957,
      "Ġtry": 1958,
      "ĠBrit": 1959,
      "Ġfav": 1960,
      "Ġtaken": 1961,
      "Ġfood": 1962,
      "Ġcompet": 1963,
      "ograp": 1964,
      "Ġsingle": 1965,
      "Ġsecurity": 1966,
      "ĠApp": 1967,
      "Ġstudy": 1968,
      "Ġquick": 1969,
      "ĠWar": 1970,
      "Ġsomeone": 1971,
      "Ġthreat": 1972,
      "Ġmind": 1973,
      "rug": 1974,
      "arget": 1975,
      "witter": 1976,
      "ocu": 1977,
      "Ġmess": 1978,
      "ĠAf": 1979,
      "ĠNorth": 1980,
      "Ġblack": 1981,
      "Ġaut": 1982,
      "Ġconsider": 1983,
      "ĠAb": 1984,
      "ĠMy": 1985,
      "icult": 1986,
      "ĠRes": 1987,
      "ĠJust": 1988,
      "Ġvict": 1989,
      "nes": 1990,
      "Ġer": 1991,
      "aid": 1992,
      "Ġpubl": 1993,
      "ĠHis": 1994,
      "ĠBar": 1995,
      "Ġspecial": 1996,
      "Ġphot": 1997,
      "play": 1998,
      "'m": 1999,
      "Ġtre": 2000,
      "Ġredu": 2001,
      "ĠCar": 2002,
      "ĠCal": 2003,
      "Ġsum": 2004,
      "Ġmult": 2005,
      "Ġbring": 2006,
      "ĠEd": 2007,
      "Ġ13": 2008,
      "ply": 2009,
      "atic": 2010,
      "Ġwanted": 2011,
      "ĠGu": 2012,
      "âĢĵ": 2013,
      "irc": 2014,
      "ps": 2015,
      "ĠDep": 2016,
      "olution": 2017,
      "ales": 2018,
      "lling": 2019,
      "ĠMe": 2020,
      "ert": 2021,
      "Ġ17": 2022,
      "Ġelse": 2023,
      "Ġplayer": 2024,
      "ĠClinton": 2025,
      "ĠHar": 2026,
      "Ġpret": 2027,
      "Ġcomb": 2028,
      "ĠInst": 2029,
      "ĠSome": 2030,
      "ĠNational": 2031,
      "Ġfoot": 2032,
      "Ġcou": 2033,
      "Ġkey": 2034,
      "par": 2035,
      "Ġ:": 2036,
      "ĠPart": 2037,
      "ify": 2038,
      "Ġnothing": 2039,
      "//": 2040,
      "ĠGe": 2041,
      "Ġbody": 2042,
      "ĠDav": 2043,
      "ĠBy": 2044,
      "ĠThese": 2045,
      "IN": 2046,
      "Ġresearch": 2047,
      "Ġjo": 2048,
      "ĠAust": 2049,
      "Ġsimilar": 2050,
      "Ġspace": 2051,
      "ows": 2052,
      "Ġprobably": 2053,
      "irl": 2054,
      "ĠWorld": 2055,
      "Ġdescrib": 2056,
      "Ġbenef": 2057,
      "Ġfront": 2058,
      "Ġz": 2059,
      "Ġbar": 2060,
      "Ġattempt": 2061,
      "Ġexist": 2062,
      "yn": 2063,
      "15": 2064,
      "ĠCity": 2065,
      "Ġcompan": 2066,
      "Ġhowever": 2067,
      "ĠDo": 2068,
      "off": 2069,
      "Ġtaking": 2070,
      "elt": 2071,
      "Ġconnect": 2072,
      "Ġdecision": 2073,
      "Ġeither": 2074,
      "rote": 2075,
      "vironment": 2076,
      "Ġcoming": 2077,
      "Ġhouse": 2078,
      "Ġfig": 2079,
      "cing": 2080,
      "Ġsignific": 2081,
      "amed": 2082,
      "sw": 2083,
      "over": 2084,
      "Ġservice": 2085,
      "ashington": 2086,
      "Ġthird": 2087,
      "ON": 2088,
      "ĠMed": 2089,
      "ww": 2090,
      "reme": 2091,
      "Ġcreate": 2092,
      "Ġwa": 2093,
      "ging": 2094,
      "Ġbegin": 2095,
      "Ġmass": 2096,
      "lish": 2097,
      "ĠJan": 2098,
      ".)": 2099,
      "ming": 2100,
      "Ġpoints": 2101,
      "Ġtra": 2102,
      "Ġwhole": 2103,
      "Ġcoun": 2104,
      "Ġsw": 2105,
      "ully": 2106,
      "Ġsound": 2107,
      "Ġener": 2108,
      "ault": 2109,
      "Ġrights": 2110,
      "Ã©": 2111,
      "Ġ2013": 2112,
      "ĠSouth": 2113,
      "Ġchallen": 2114,
      "Ġstep": 2115,
      "Ġsus": 2116,
      "asing": 2117,
      "Ġear": 2118,
      "pecially": 2119,
      "Ġenc": 2120,
      "uation": 2121,
      "Ġeverything": 2122,
      "ivil": 2123,
      "Ġexec": 2124,
      "Ġrelations": 2125,
      "Ġfeat": 2126,
      "Ġban": 2127,
      "Ġfederal": 2128,
      "Ġhit": 2129,
      "ĠWashington": 2130,
      "Ġargu": 2131,
      "Ġfire": 2132,
      "aces": 2133,
      "ches": 2134,
      "pite": 2135,
      "Ġwrote": 2136,
      "Ġrepl": 2137,
      "ana": 2138,
      "Ġstop": 2139,
      "Ġey": 2140,
      "hy": 2141,
      "now": 2142,
      "Ġcustom": 2143,
      "Ġroom": 2144,
      "Ġconv": 2145,
      "://": 2146,
      "Ġfield": 2147,
      "af": 2148,
      "Ġamount": 2149,
      "Ġmeas": 2150,
      "Ġtreat": 2151,
      "ĠAcc": 2152,
      "Ġcand": 2153,
      "ran": 2154,
      "Ġtarget": 2155,
      "Ġfurther": 2156,
      "ibility": 2157,
      "ively": 2158,
      "Ġwatch": 2159,
      "Ġissues": 2160,
      "Ġposition": 2161,
      "ources": 2162,
      "Ġmatter": 2163,
      "ĠGerman": 2164,
      "ried": 2165,
      "Ġrole": 2166,
      "Ġimm": 2167,
      "Ġprofess": 2168,
      "ently": 2169,
      "Ġself": 2170,
      "Ġpick": 2171,
      "Ġcompl": 2172,
      "Ġsuper": 2173,
      "Ġagree": 2174,
      "Ġdevelopment": 2175,
      "Ġhope": 2176,
      "head": 2177,
      "itted": 2178,
      "Ġstri": 2179,
      "Ġstatement": 2180,
      "Ġdam": 2181,
      "Ġreleased": 2182,
      "ung": 2183,
      "Ġbreak": 2184,
      "Ġhimself": 2185,
      "Ġdue": 2186,
      "IS": 2187,
      "Ġprovide": 2188,
      "Ġoutside": 2189,
      "Ġfall": 2190,
      "pping": 2191,
      "Ġitself": 2192,
      "Ġseems": 2193,
      "Ġ198": 2194,
      "Ġfinal": 2195,
      "ĠEn": 2196,
      "Ġthemselves": 2197,
      "attle": 2198,
      "ape": 2199,
      "ĠChina": 2200,
      "Ġbegan": 2201,
      "mb": 2202,
      "rodu": 2203,
      "sy": 2204,
      "lu": 2205,
      "Ġcompanies": 2206,
      "aul": 2207,
      "iday": 2208,
      "Ġoffice": 2209,
      "lam": 2210,
      "amer": 2211,
      "Ġcontinue": 2212,
      "Ġaction": 2213,
      "Ġcharacter": 2214,
      "ĠIntern": 2215,
      "Ġspecific": 2216,
      "Ġabove": 2217,
      "sec": 2218,
      "Ġstates": 2219,
      "obal": 2220,
      "Ġgeneral": 2221,
      "Ġrepresent": 2222,
      "Ġevidence": 2223,
      "ery": 2224,
      "Ġlab": 2225,
      "Ġofficials": 2226,
      "Ġ*": 2227,
      "Ġleaders": 2228,
      "Ġground": 2229,
      "ades": 2230,
      "ĠDr": 2231,
      "Ġbecame": 2232,
      "Ġsimply": 2233,
      "ender": 2234,
      "ĠWill": 2235,
      "Ġstudents": 2236,
      "iod": 2237,
      "Ġgun": 2238,
      "Ġinterview": 2239,
      "iddle": 2240,
      "Ġbuilding": 2241,
      "ogn": 2242,
      "Ġrad": 2243,
      "Ġdocu": 2244,
      "Ġaddress": 2245,
      "Ġopt": 2246,
      "ilt": 2247,
      "Ġtrue": 2248,
      "Ġmusic": 2249,
      "oon": 2250,
      "Ġcommon": 2251,
      "Ġsignificant": 2252,
      "Ġdifficult": 2253,
      "ask": 2254,
      "Ġhours": 2255,
      "Ġstat": 2256,
      "Ġinit": 2257,
      "Ġenergy": 2258,
      "Ġ25": 2259,
      "Ġadminist": 2260,
      "body": 2261,
      "like": 2262,
      "Ġdou": 2263,
      "Ġred": 2264,
      "Ġ2017": 2265,
      "Ġ2012": 2266,
      "arlier": 2267,
      "AN": 2268,
      "Ġcountries": 2269,
      "Ġneg": 2270,
      "16": 2271,
      "Ġdeep": 2272,
      "aced": 2273,
      "Ġinclude": 2274,
      "ĠFace": 2275,
      "AR": 2276,
      "oid": 2277,
      "Ġeveryone": 2278,
      "lim": 2279,
      "isc": 2280,
      "Ġwasn": 2281,
      "Ġversion": 2282,
      "yle": 2283,
      "ĠPe": 2284,
      "'ll": 2285,
      "Ġdom": 2286,
      "angu": 2287,
      "Ġwhite": 2288,
      "Ġdrug": 2289,
      "BC": 2290,
      "Ġ|": 2291,
      "Ġmag": 2292,
      "Ġgroups": 2293,
      "Ġtem": 2294,
      "Ġpain": 2295,
      "Ġdest": 2296,
      "Ġ100": 2297,
      "Ġgen": 2298,
      "Ġwoman": 2299,
      "Ġpretty": 2300,
      "Ġtyp": 2301,
      "ĠKe": 2302,
      "____": 2303,
      "Ġrespons": 2304,
      "ĠWest": 2305,
      "OR": 2306,
      "13": 2307,
      "Ġball": 2308,
      "Ġlate": 2309,
      "Ġindustry": 2310,
      "Ġquite": 2311,
      "!!": 2312,
      "fer": 2313,
      "ĠNews": 2314,
      "Ġneeded": 2315,
      "Ġrunning": 2316,
      "Ġsaw": 2317,
      "reg": 2318,
      "Ġphys": 2319,
      "ogle": 2320,
      "Ġelection": 2321,
      "14": 2322,
      "ift": 2323,
      "ĠMus": 2324,
      "umb": 2325,
      "Ġshows": 2326,
      "Ġsense": 2327,
      "Ġappe": 2328,
      "ĠTwitter": 2329,
      "Ġrelease": 2330,
      "Ġinstead": 2331,
      "ili": 2332,
      "Ġbillion": 2333,
      "Ġcandid": 2334,
      "Ġneeds": 2335,
      "Ġlat": 2336,
      "eks": 2337,
      "Ġsuff": 2338,
      "Ġanim": 2339,
      "Ġexc": 2340,
      "Ġap": 2341,
      "Ġespecially": 2342,
      "Ġ)": 2343,
      "ĠCong": 2344,
      "ote": 2345,
      "atur": 2346,
      "Ġrecently": 2347,
      "ribut": 2348,
      "Ġsite": 2349,
      "Ġinj": 2350,
      "ager": 2351,
      "ĠSte": 2352,
      "Ġvote": 2353,
      "Ġvalue": 2354,
      "Ġbelow": 2355,
      "ĠSm": 2356,
      "fully": 2357,
      "ournal": 2358,
      "ĠPer": 2359,
      "Ġaccept": 2360,
      "Ġeconomic": 2361,
      "arter": 2362,
      "Ġmot": 2363,
      "Ġfriends": 2364,
      "ival": 2365,
      "ES": 2366,
      "Ġplayed": 2367,
      "Ġopportun": 2368,
      "ĠMich": 2369,
      "ights": 2370,
      "ĠFacebook": 2371,
      "Ġforward": 2372,
      "hod": 2373,
      "Ġdeter": 2374,
      "Ġlegal": 2375,
      "ĠWhite": 2376,
      "Ġ50": 2377,
      "Ġhom": 2378,
      "den": 2379,
      "Ġplaying": 2380,
      "ached": 2381,
      "Ġmoment": 2382,
      "lev": 2383,
      "Ġrelig": 2384,
      "Ġabs": 2385,
      "Ġpie": 2386,
      "ancial": 2387,
      "Ġsoon": 2388,
      "Ġple": 2389,
      "Ġblock": 2390,
      "Ġconsum": 2391,
      "irm": 2392,
      "ĠOct": 2393,
      "Ġhtt": 2394,
      "Ġlost": 2395,
      "Ġchanges": 2396,
      "Ġperiod": 2397,
      "epend": 2398,
      "ularly": 2399,
      "Ġeduc": 2400,
      "Ġjud": 2401,
      "Ġenvironment": 2402,
      "bo": 2403,
      "where": 2404,
      "su": 2405,
      "time": 2406,
      "Ġwrong": 2407,
      "Ġcop": 2408,
      "istic": 2409,
      "ĠRepublican": 2410,
      "Ġparent": 2411,
      "duct": 2412,
      "Ġcheck": 2413,
      "Ġfocus": 2414,
      "Ġshare": 2415,
      "irt": 2416,
      "17": 2417,
      "ĠSept": 2418,
      "Ġtrack": 2419,
      "oring": 2420,
      "ĠMore": 2421,
      "Ġobject": 2422,
      "Ġwind": 2423,
      "Ġlo": 2424,
      "Ġcolle": 2425,
      "medi": 2426,
      "ĠOff": 2427,
      "Ġwalk": 2428,
      "Ġcred": 2429,
      "osing": 2430,
      "onse": 2431,
      "Ġweeks": 2432,
      "AS": 2433,
      "Ġlonger": 2434,
      "arc": 2435,
      "Ġgoal": 2436,
      "itution": 2437,
      "ĠMarch": 2438,
      "Ġhost": 2439,
      "urch": 2440,
      "Ġonline": 2441,
      "Ġtotal": 2442,
      "oke": 2443,
      "eng": 2444,
      "Ġshoot": 2445,
      "ĠAccording": 2446,
      "Ġsold": 2447,
      "Ġcirc": 2448,
      "Ġcomput": 2449,
      "ental": 2450,
      "Ġanyone": 2451,
      "Ġreve": 2452,
      "Ġdecl": 2453,
      "Ġworks": 2454,
      "ĠGoogle": 2455,
      "Ġaud": 2456,
      "put": 2457,
      "ĠHere": 2458,
      "Ġstay": 2459,
      "right": 2460,
      "Ġage": 2461,
      "Ġpersonal": 2462,
      "Ġ24": 2463,
      "aut": 2464,
      "ĠSyri": 2465,
      "Ġtit": 2466,
      "Ġarticle": 2467,
      "Ġwebs": 2468,
      "Ġscient": 2469,
      "ĠRed": 2470,
      "Ġrisk": 2471,
      "ĠAct": 2472,
      "itting": 2473,
      "ique": 2474,
      "haps": 2475,
      "key": 2476,
      "Ġresults": 2477,
      "Ġheld": 2478,
      "Ġhigher": 2479,
      "hern": 2480,
      "ĠJune": 2481,
      "Ġce": 2482,
      "lear": 2483,
      "ĠDepartment": 2484,
      "ĠEm": 2485,
      "oe": 2486,
      "Ġpotential": 2487,
      "Ġpopular": 2488,
      "Ġep": 2489,
      "ij": 2490,
      "ÂŃ": 2491,
      "val": 2492,
      "ĠCongress": 2493,
      "ĠAug": 2494,
      "ript": 2495,
      "Ġbase": 2496,
      "cil": 2497,
      "aterial": 2498,
      "Ġwords": 2499,
      "ĠCont": 2500,
      "overed": 2501,
      "ĠGod": 2502,
      "Ġtechnology": 2503,
      "18": 2504,
      "Ġansw": 2505,
      "Ġrev": 2506,
      "Ġ{": 2507,
      "ns": 2508,
      "ners": 2509,
      "Ġfunction": 2510,
      "Ġrate": 2511,
      "St": 2512,
      "lt": 2513,
      "ule": 2514,
      "Ġincrease": 2515,
      "iding": 2516,
      "Ġapplic": 2517,
      "Ġnecess": 2518,
      "Ġpred": 2519,
      "uary": 2520,
      "ees": 2521,
      "alt": 2522,
      "Ġled": 2523,
      "Ġcode": 2524,
      "Ġservices": 2525,
      "ients": 2526,
      "hel": 2527,
      "ham": 2528,
      "Ġimpact": 2529,
      "ole": 2530,
      "Ġstru": 2531,
      "Ġcomment": 2532,
      "ĠEl": 2533,
      "Ġforce": 2534,
      "ĠApr": 2535,
      "Ġste": 2536,
      "Ġpack": 2537,
      "Ġcontract": 2538,
      "ends": 2539,
      "ray": 2540,
      "aging": 2541,
      "Ġprim": 2542,
      "Ġport": 2543,
      "asons": 2544,
      "Ġhy": 2545,
      "rel": 2546,
      "Ġ197": 2547,
      "Ġden": 2548,
      "anger": 2549,
      "ilities": 2550,
      "Ġreview": 2551,
      "Ġdi": 2552,
      "fect": 2553,
      "ĠHill": 2554,
      "Ġexecut": 2555,
      "Ġproblems": 2556,
      "ateg": 2557,
      "apan": 2558,
      "ĠCour": 2559,
      "Ġways": 2560,
      "ĠJuly": 2561,
      "Ġinternational": 2562,
      "ĠDes": 2563,
      "Ġcivil": 2564,
      "reet": 2565,
      "Ġreceived": 2566,
      "Ġdead": 2567,
      "omm": 2568,
      "Ġexact": 2569,
      "Ġeasy": 2570,
      "itiz": 2571,
      "Ġexpress": 2572,
      "Ġvol": 2573,
      "Ġfavor": 2574,
      "Ġexpected": 2575,
      "Ġrespect": 2576,
      "Ġearlier": 2577,
      "Ġshot": 2578,
      "Ġcell": 2579,
      "Ġprice": 2580,
      "Ġstaff": 2581,
      "Ġminutes": 2582,
      "isl": 2583,
      "ĠMond": 2584,
      "Ġcreated": 2585,
      "ĠAustral": 2586,
      "Ġnearly": 2587,
      "Ġlangu": 2588,
      "aving": 2589,
      "Ġspeak": 2590,
      "Ġleave": 2591,
      "Ġupd": 2592,
      "Ġannounced": 2593,
      "==": 2594,
      "Ġsen": 2595,
      "Ġmodel": 2596,
      "ude": 2597,
      "Ġrelationship": 2598,
      "ĠFriday": 2599,
      "Ġinside": 2600,
      "action": 2601,
      "atural": 2602,
      "Ġsubject": 2603,
      "Ġanti": 2604,
      "Ġ2011": 2605,
      "Ġsurpr": 2606,
      "uel": 2607,
      "Ġdiv": 2608,
      "Ġcannot": 2609,
      "hood": 2610,
      "Ġet": 2611,
      "iter": 2612,
      "Ġinvolved": 2613,
      "ires": 2614,
      "iple": 2615,
      "Ġtype": 2616,
      "Ġestab": 2617,
      "Ġheart": 2618,
      "ctor": 2619,
      "Ġquestions": 2620,
      "atives": 2621,
      "In": 2622,
      "Ġ@": 2623,
      "ĠApril": 2624,
      "Ġresponse": 2625,
      "**": 2626,
      "ples": 2627,
      "na": 2628,
      "joy": 2629,
      "ĠEven": 2630,
      "ĠQu": 2631,
      "Ġprivate": 2632,
      "ĠAg": 2633,
      "Ġstore": 2634,
      "Ġsoft": 2635,
      "eter": 2636,
      "25": 2637,
      "Ġterror": 2638,
      "60": 2639,
      "ĠPal": 2640,
      "Ġgirl": 2641,
      "Ġnation": 2642,
      "Ġ+": 2643,
      "ises": 2644,
      "de": 2645,
      "Ġadm": 2646,
      "Ġfinancial": 2647,
      "Ġcoll": 2648,
      "ĠJapan": 2649,
      "Ġrespond": 2650,
      "ittee": 2651,
      "Ġability": 2652,
      "Ġcapt": 2653,
      "ĠDavid": 2654,
      "Ġcapital": 2655,
      "itten": 2656,
      "ãģ": 2657,
      "Ġbroad": 2658,
      "Ġoriginal": 2659,
      "Ġdirector": 2660,
      "ĠGeor": 2661,
      "bor": 2662,
      "Ġusers": 2663,
      "Ġchance": 2664,
      "lex": 2665,
      "Ġroad": 2666,
      "ĠAmericans": 2667,
      "Ġkilled": 2668,
      "ĠGl": 2669,
      "ĠSpe": 2670,
      "Ġsource": 2671,
      "ĠTues": 2672,
      "Ġbuy": 2673,
      "lled": 2674,
      "ĠMonday": 2675,
      "Ġworked": 2676,
      "ams": 2677,
      "Ġcases": 2678,
      "okes": 2679,
      "Ġmother": 2680,
      "Ġarrest": 2681,
      "ops": 2682,
      "ips": 2683,
      "Ġaverage": 2684,
      "Ġur": 2685,
      "ĠHer": 2686,
      "ĠCount": 2687,
      "Ġliving": 2688,
      "rem": 2689,
      "Ġcontent": 2690,
      "ĠRussia": 2691,
      "ael": 2692,
      "Ġreports": 2693,
      "cast": 2694,
      "ech": 2695,
      "ky": 2696,
      "ĠTuesday": 2697,
      "EN": 2698,
      "Ġmaterial": 2699,
      "Ġworth": 2700,
      "Ġglobal": 2701,
      "icro": 2702,
      "This": 2703,
      "omb": 2704,
      "Ġmember": 2705,
      "Ġforeign": 2706,
      "Ġbecom": 2707,
      "ites": 2708,
      "Ġaffect": 2709,
      "Ġrequest": 2710,
      "che": 2711,
      "ellig": 2712,
      "Ġimmedi": 2713,
      "Ġrequire": 2714,
      "Ġ2010": 2715,
      "ĠCalif": 2716,
      "Ġmethod": 2717,
      "Ġbank": 2718,
      "Ġcal": 2719,
      "Ġmeeting": 2720,
      "oto": 2721,
      "ĠCor": 2722,
      "Ġpublished": 2723,
      "ĠFirst": 2724,
      "Ġcollect": 2725,
      "Ġphone": 2726,
      "str": 2727,
      "Ġfans": 2728,
      "\".": 2729,
      "Ġgave": 2730,
      "Ġsituation": 2731,
      "Ġoil": 2732,
      "ĠPaul": 2733,
      "Ġdecided": 2734,
      "Ġtakes": 2735,
      "Ġterms": 2736,
      "ovember": 2737,
      "ĠJanuary": 2738,
      "Ġwhose": 2739,
      "Ġclub": 2740,
      "ĠWed": 2741,
      "unt": 2742,
      "Ġweap": 2743,
      "ought": 2744,
      "Ġindic": 2745,
      "Ġarri": 2746,
      "bit": 2747,
      "Ġmid": 2748,
      "osition": 2749,
      "Ġpict": 2750,
      "rought": 2751,
      "Ġparticip": 2752,
      "Ġhuge": 2753,
      "Ġrecogn": 2754,
      "Ġ40": 2755,
      "ological": 2756,
      "Ġoffer": 2757,
      "Ġapproach": 2758,
      "apt": 2759,
      "Ġnetwork": 2760,
      "ructure": 2761,
      "Ġcouple": 2762,
      "ĠPost": 2763,
      "Ġdefin": 2764,
      "Ġsimple": 2765,
      "Ġinflu": 2766,
      "face": 2767,
      "ĠSund": 2768,
      "Ġhappened": 2769,
      "izing": 2770,
      "Ġsqu": 2771,
      "Ġpage": 2772,
      "ĠSeptember": 2773,
      "eed": 2774,
      "ĠSan": 2775,
      "Ġemer": 2776,
      "Ġlack": 2777,
      "Ġworkers": 2778,
      "ĠFeb": 2779,
      "Ġfather": 2780,
      "ĠTV": 2781,
      "Ġassoci": 2782,
      "oud": 2783,
      "ume": 2784,
      "Ġtown": 2785,
      "usion": 2786,
      "ĠIslam": 2787,
      "Ġadministration": 2788,
      "Ġquickly": 2789,
      "oor": 2790,
      "ĠSch": 2791,
      "Ġeconomy": 2792,
      "oved": 2793,
      "ĠTw": 2794,
      "ĠEuropean": 2795,
      "ĠNovember": 2796,
      "Ġlog": 2797,
      "Ġimprove": 2798,
      "ino": 2799,
      "Ġcareer": 2800,
      "Ġcurrently": 2801,
      "load": 2802,
      "][": 2803,
      "mon": 2804,
      "Ġtou": 2805,
      "Ġgoes": 2806,
      "Ġbur": 2807,
      "Ġill": 2808,
      "Ġperformance": 2809,
      "Ġtal": 2810,
      "ĠAfric": 2811,
      "Ġlives": 2812,
      "Ġturned": 2813,
      "ĠCourt": 2814,
      "Ġrace": 2815,
      "Ġplans": 2816,
      "rect": 2817,
      "He": 2818,
      "ĠBritish": 2819,
      "Ġfem": 2820,
      "ruction": 2821,
      "Ġfelt": 2822,
      "\",": 2823,
      "Ġintrodu": 2824,
      "Ġcy": 2825,
      "based": 2826,
      "Ġregard": 2827,
      "Ġloss": 2828,
      "ĠThurs": 2829,
      "Ġwide": 2830,
      "Ġnorm": 2831,
      "Ġareas": 2832,
      "Ġcover": 2833,
      "Ġpull": 2834,
      "Ġenjoy": 2835,
      "avy": 2836,
      "Ġboy": 2837,
      "ĠWednes": 2838,
      "Ġtool": 2839,
      "vertise": 2840,
      "Ġthous": 2841,
      "Ġ21": 2842,
      "Ġtrade": 2843,
      "Ġteams": 2844,
      "Ġtravel": 2845,
      "rain": 2846,
      "Ġbehav": 2847,
      "Ġvia": 2848,
      "aled": 2849,
      "Ġsong": 2850,
      "ills": 2851,
      "ĠThursday": 2852,
      "Ġmis": 2853,
      "Ġvisit": 2854,
      "Ġ22": 2855,
      "ĠWednesday": 2856,
      "estern": 2857,
      "ĠOf": 2858,
      "oo": 2859,
      "Ġemail": 2860,
      "Ġhot": 2861,
      "ĠCaliforn": 2862,
      "Ġevents": 2863,
      "Ġhon": 2864,
      "ĠOctober": 2865,
      "Ġfre": 2866,
      "Ġproduction": 2867,
      "ĠThen": 2868,
      "ĠAugust": 2869,
      "aur": 2870,
      "ese": 2871,
      "order": 2872,
      "ĠAng": 2873,
      "Ġtext": 2874,
      "Ġcause": 2875,
      "Ġheard": 2876,
      "Ġsize": 2877,
      "ĠCanada": 2878,
      "Ġord": 2879,
      "ety": 2880,
      "Ġwebsite": 2881,
      "40": 2882,
      "ett": 2883,
      "ĠInt": 2884,
      "Ġgrowth": 2885,
      "Ġpers": 2886,
      "agement": 2887,
      "Ġpopulation": 2888,
      "Ġfear": 2889,
      "Ġneigh": 2890,
      "bl": 2891,
      "Ġâ": 2892,
      "Ġspent": 2893,
      "Ġparticular": 2894,
      "Ġbi": 2895,
      "Ġhop": 2896,
      "You": 2897,
      "Ġrepe": 2898,
      "Ġdig": 2899,
      "Ġpoll": 2900,
      "Ġsecret": 2901,
      "aily": 2902,
      "Ġvictim": 2903,
      "Ġvo": 2904,
      "Ġattention": 2905,
      "Ġboard": 2906,
      "ĠSw": 2907,
      "rown": 2908,
      "ĠBlack": 2909,
      "ĠMark": 2910,
      "Ġmovement": 2911,
      "chie": 2912,
      "ĠSunday": 2913,
      "Ġvarious": 2914,
      "Ġengine": 2915,
      "istan": 2916,
      "Ġlegisl": 2917,
      "Ġnumbers": 2918,
      "atory": 2919,
      "Ġhands": 2920,
      "yond": 2921,
      "Ġreach": 2922,
      "'d": 2923,
      "ences": 2924,
      "ED": 2925,
      "iction": 2926,
      "Ġmorning": 2927,
      "Ġknew": 2928,
      "undred": 2929,
      "Ġtried": 2930,
      "ĠUK": 2931,
      "ĠIS": 2932,
      "Ġmatch": 2933,
      "Ġbuilt": 2934,
      "Wh": 2935,
      "Ġmention": 2936,
      "Ġ>": 2937,
      "Ġround": 2938,
      "ĠCalifornia": 2939,
      "?âĢĿ": 2940,
      "uses": 2941,
      "force": 2942,
      "cember": 2943,
      "ĠFin": 2944,
      "Ġincluded": 2945,
      "ledge": 2946,
      "Ġgets": 2947,
      "ĠPar": 2948,
      "ĠPat": 2949,
      "ession": 2950,
      "Ġlower": 2951,
      "Ġsepar": 2952,
      "ĠKore": 2953,
      "Ġwants": 2954,
      "Ġforces": 2955,
      "ris": 2956,
      "Ġleader": 2957,
      "udget": 2958,
      "ctions": 2959,
      "vent": 2960,
      "ĠFrom": 2961,
      "âĢĿ.": 2962,
      "cies": 2963,
      "ceed": 2964,
      "Ġprep": 2965,
      "idents": 2966,
      "Ġmedical": 2967,
      "ened": 2968,
      "ze": 2969,
      "Ġimage": 2970,
      "Ġallowed": 2971,
      "Ġcitiz": 2972,
      "oph": 2973,
      "Ġ}": 2974,
      "--------": 2975,
      "anks": 2976,
      "ĠKing": 2977,
      "Ġmach": 2978,
      "Ġstar": 2979,
      "lin": 2980,
      "ibly": 2981,
      "idered": 2982,
      "urd": 2983,
      "Ġtraining": 2984,
      "orters": 2985,
      "Ġfair": 2986,
      "ny": 2987,
      "ĠStreet": 2988,
      "aker": 2989,
      "down": 2990,
      "Ġlooks": 2991,
      "Ġsett": 2992,
      "Ġwond": 2993,
      "Ġprogress": 2994,
      "Ġ23": 2995,
      "ma": 2996,
      "Ġbrought": 2997,
      "Ġupon": 2998,
      "Ġperfect": 2999,
      "Ġsort": 3000,
      "alled": 3001,
      "sequ": 3002,
      "ĠDecember": 3003,
      "hold": 3004,
      "Ġcontact": 3005,
      "hic": 3006,
      "Ġlink": 3007,
      "arily": 3008,
      "cle": 3009,
      "Ġprevious": 3010,
      "Ġfell": 3011,
      "Ġindepend": 3012,
      "raq": 3013,
      "rim": 3014,
      "Ġdemand": 3015,
      "Ġpaper": 3016,
      "ĠIran": 3017,
      "ĠChe": 3018,
      "Ġbox": 3019,
      "Ġfast": 3020,
      "Ġhor": 3021,
      "Ġhear": 3022,
      "Ġrac": 3023,
      "Ġcard": 3024,
      "ĠSoc": 3025,
      "Ġrules": 3026,
      "vil": 3027,
      "ĠTH": 3028,
      "ysis": 3029,
      "come": 3030,
      "field": 3031,
      "ening": 3032,
      "raz": 3033,
      "ĠRussian": 3034,
      "99": 3035,
      "ĠParty": 3036,
      "ĠCons": 3037,
      "Ġson": 3038,
      "Ġcoach": 3039,
      "Ġlanguage": 3040,
      "Ġseek": 3041,
      "ground": 3042,
      "inks": 3043,
      "ĠPark": 3044,
      "ecause": 3045,
      "iers": 3046,
      "Ġprevent": 3047,
      "Ġess": 3048,
      "het": 3049,
      "Ġeffort": 3050,
      "Ġserious": 3051,
      "Ġliber": 3052,
      ");": 3053,
      "Ġ...": 3054,
      "ĠSand": 3055,
      "ĠCenter": 3056,
      "ĠTimes": 3057,
      "uk": 3058,
      "Ġconsidered": 3059,
      "Ġdraw": 3060,
      "Ġdemon": 3061,
      "light": 3062,
      "Ġens": 3063,
      "ĠIraq": 3064,
      "Ġscience": 3065,
      "ĠPolice": 3066,
      "Ġ2009": 3067,
      "Ġtalking": 3068,
      "Ġsafe": 3069,
      "Ġmajority": 3070,
      "ĠÃ": 3071,
      "Ġlatest": 3072,
      "ĠSatur": 3073,
      "Ġparticularly": 3074,
      "bed": 3075,
      "AC": 3076,
      "Ġsociety": 3077,
      "Ġdoll": 3078,
      "Ġfeatures": 3079,
      "ondon": 3080,
      "Ġsearch": 3081,
      "Ġmovie": 3082,
      "AL": 3083,
      "ha": 3084,
      "ĠSenate": 3085,
      "Ġlearn": 3086,
      "Ġslow": 3087,
      "Ġund": 3088,
      "ĠIndia": 3089,
      "Ġseven": 3090,
      "Ġstrugg": 3091,
      "Ġopportunity": 3092,
      "Ġaddition": 3093,
      "Ġinvestigation": 3094,
      "Ġpen": 3095,
      "Ġobser": 3096,
      "arth": 3097,
      "Ġconduct": 3098,
      "Ġspeed": 3099,
      "Ġdespite": 3100,
      "iant": 3101,
      "Ġeight": 3102,
      "ĠDonald": 3103,
      "IC": 3104,
      "aries": 3105,
      "elligence": 3106,
      "ĠNet": 3107,
      "ĠSer": 3108,
      "Ġsens": 3109,
      "idge": 3110,
      "Ġcritic": 3111,
      "asc": 3112,
      "ĠSim": 3113,
      "imately": 3114,
      "Ġnatural": 3115,
      "ification": 3116,
      "Ġinteresting": 3117,
      "Ġreb": 3118,
      "ĠGener": 3119,
      "coin": 3120,
      "Ġmessage": 3121,
      "Ġexactly": 3122,
      "Ġsystems": 3123,
      "Ġmodern": 3124,
      "Ġlevels": 3125,
      "Ġrange": 3126,
      "Ġparents": 3127,
      "Ġexam": 3128,
      "ĠRead": 3129,
      "Ġsn": 3130,
      "Ġanswer": 3131,
      "ĠUp": 3132,
      "Ġachie": 3133,
      "ĠEast": 3134,
      "ĠMor": 3135,
      "ĠSaturday": 3136,
      "ament": 3137,
      "Ġgas": 3138,
      "ĠOther": 3139,
      "ĠLet": 3140,
      "Ġdocument": 3141,
      "Ġ2008": 3142,
      "Ġblood": 3143,
      "ĠJew": 3144,
      "200": 3145,
      "ĠRom": 3146,
      "Ġincreasing": 3147,
      "Ġguy": 3148,
      "ruary": 3149,
      "OS": 3150,
      "Ġmiddle": 3151,
      "Ġimag": 3152,
      "Ġhundred": 3153,
      "Ġcarry": 3154,
      "Ġextreme": 3155,
      "ospital": 3156,
      "Ġinn": 3157,
      "Ġlay": 3158,
      "Ġquality": 3159,
      "Ġpractice": 3160,
      "Ġscreen": 3161,
      "ani": 3162,
      "unk": 3163,
      "Ġstuff": 3164,
      "Ġsometimes": 3165,
      "pir": 3166,
      "Ġwritten": 3167,
      "Ġremain": 3168,
      "Ġoccur": 3169,
      "Ġprior": 3170,
      "ĠTur": 3171,
      "Ġspokes": 3172,
      "Ġregul": 3173,
      "ĠTex": 3174,
      "ĠMcC": 3175,
      "ĠLondon": 3176,
      "Ġdefense": 3177,
      "Ġterm": 3178,
      "Ġjobs": 3179,
      "80": 3180,
      "ibr": 3181,
      "If": 3182,
      "ĠMuslim": 3183,
      "Ġsummer": 3184,
      "Ġcompletely": 3185,
      "Ġsurve": 3186,
      "Ġcertainly": 3187,
      "ĠMichael": 3188,
      "IT": 3189,
      "Ġfinally": 3190,
      "ĠPlay": 3191,
      "ining": 3192,
      "Ġeducation": 3193,
      "uf": 3194,
      "ĠMost": 3195,
      "Ġconc": 3196,
      "ĠCounty": 3197,
      "Ġpoor": 3198,
      "Ġsexual": 3199,
      "Ġbott": 3200,
      "Ġtable": 3201,
      "Ġclaims": 3202,
      "ï¿": 3203,
      "abor": 3204,
      "ĠEvery": 3205,
      "Ġprison": 3206,
      "Ġcrim": 3207,
      "ĠBill": 3208,
      "ĠFebruary": 3209,
      "rast": 3210,
      "Ġuser": 3211,
      "Ġhttp": 3212,
      "Ġextra": 3213,
      "eff": 3214,
      "Ġrequired": 3215,
      "ï¿½": 3216,
      "ishing": 3217,
      "Ġexperien": 3218,
      "illed": 3219,
      "Ġplat": 3220,
      "Ġofficers": 3221,
      "ĠRec": 3222,
      "set": 3223,
      "Ġalle": 3224,
      "Ġpurp": 3225,
      "reedom": 3226,
      "uclear": 3227,
      "Ġdoub": 3228,
      "Ġproducts": 3229,
      "inese": 3230,
      "22": 3231,
      "Ġmaintain": 3232,
      "There": 3233,
      "pper": 3234,
      "Ġattacks": 3235,
      "Ġregion": 3236,
      "Ġexcept": 3237,
      "nces": 3238,
      "ĠCoun": 3239,
      "ĠMon": 3240,
      "Ġcross": 3241,
      "oses": 3242,
      "Ġaren": 3243,
      "Ġviolence": 3244,
      "Ġobv": 3245,
      "Ġprotest": 3246,
      "Ġconserv": 3247,
      "ico": 3248,
      "itch": 3249,
      "ĠSince": 3250,
      "Ġlooked": 3251,
      "Ġimmig": 3252,
      "Ġstandard": 3253,
      "Ġclimate": 3254,
      "tr": 3255,
      "Ġjournal": 3256,
      "ĠWhy": 3257,
      "Ġbiggest": 3258,
      "Ġdro": 3259,
      "Ġusually": 3260,
      "ĠâĢ¦": 3261,
      "Ġready": 3262,
      "ari": 3263,
      "hib": 3264,
      "Ġstories": 3265,
      "room": 3266,
      "Ġsurv": 3267,
      "Ġpaid": 3268,
      "anced": 3269,
      "Ġwrite": 3270,
      "Ġdescribed": 3271,
      "lying": 3272,
      "Ġculture": 3273,
      "ĠDemocratic": 3274,
      "ĠJames": 3275,
      "rench": 3276,
      "Ġcommunic": 3277,
      "utions": 3278,
      "Ġleading": 3279,
      "ĠRepublicans": 3280,
      "Ġ27": 3281,
      "Ġcosts": 3282,
      "Ġalthough": 3283,
      "Ġwriting": 3284,
      "atter": 3285,
      "Ġnamed": 3286,
      "entially": 3287,
      "Ġpath": 3288,
      "fl": 3289,
      "isions": 3290,
      "sych": 3291,
      "Ġreality": 3292,
      "ously": 3293,
      "aming": 3294,
      "Ġperhaps": 3295,
      "ĠWilliam": 3296,
      "Ġavoid": 3297,
      "Ġdetails": 3298,
      "ĠMany": 3299,
      "Ġchanged": 3300,
      "ension": 3301,
      "ĠRich": 3302,
      "Ġones": 3303,
      "vertisement": 3304,
      "Ġitem": 3305,
      "Ġult": 3306,
      "Ġbudget": 3307,
      "Ġgiving": 3308,
      "ida": 3309,
      "Ġconvers": 3310,
      "Ġpan": 3311,
      "Ġten": 3312,
      "aught": 3313,
      "Ġbeyond": 3314,
      "akers": 3315,
      "ban": 3316,
      "Ġstudent": 3317,
      "Ġaw": 3318,
      "aves": 3319,
      "eth": 3320,
      "Ġstarting": 3321,
      "Ġcomments": 3322,
      "ĠSci": 3323,
      "Ġshowed": 3324,
      "Ġwife": 3325,
      "Ġgrowing": 3326,
      "atever": 3327,
      "Ġfigure": 3328,
      "Ġscene": 3329,
      "ĠChinese": 3330,
      "Ġthinking": 3331,
      "ĠStar": 3332,
      "Ġcamer": 3333,
      "erc": 3334,
      "Ġcontinued": 3335,
      "Ġdanger": 3336,
      "Ġdamage": 3337,
      "Ġkids": 3338,
      "Ġchoice": 3339,
      "Ġhistor": 3340,
      "Ġrout": 3341,
      "Ġspeech": 3342,
      "Ġremains": 3343,
      "Ġpurch": 3344,
      "Ġfix": 3345,
      "Ġthroughout": 3346,
      "ĠWell": 3347,
      "aly": 3348,
      "Ġprovided": 3349,
      "OP": 3350,
      "Ġquarter": 3351,
      "Ġtoward": 3352,
      "Ġalone": 3353,
      "imum": 3354,
      "Ġdog": 3355,
      "Ġparts": 3356,
      "Ġhous": 3357,
      "Ġchief": 3358,
      "inary": 3359,
      "Ġlaws": 3360,
      "Ġdirectly": 3361,
      "Ġcenter": 3362,
      "ĠJack": 3363,
      "Ġincreased": 3364,
      "Ġdebate": 3365,
      "ĠLast": 3366,
      "ĠIndian": 3367,
      "ĠOver": 3368,
      "urt": 3369,
      "Ġpressure": 3370,
      "Ġsaf": 3371,
      "Ġcomputer": 3372,
      "oper": 3373,
      "Ġsell": 3374,
      "Ġdied": 3375,
      "Ġmill": 3376,
      "Ġcalls": 3377,
      "Ġwouldn": 3378,
      "omp": 3379,
      "Ġremember": 3380,
      "Ġ28": 3381,
      "Ġ26": 3382,
      "ĠApple": 3383,
      "Ġefforts": 3384,
      "Ġpiece": 3385,
      "Ġstage": 3386,
      "mit": 3387,
      "24": 3388,
      "Ġmultiple": 3389,
      "Ġcele": 3390,
      "Ġletter": 3391,
      "Ġimplement": 3392,
      "oul": 3393,
      "Ġproperty": 3394,
      "Ġoption": 3395,
      "ux": 3396,
      "Ġofficer": 3397,
      "ĠÂ£": 3398,
      "Ġreading": 3399,
      "ĠAdd": 3400,
      "Ġvoters": 3401,
      "ĠSuper": 3402,
      "Ġtowards": 3403,
      "ĠBo": 3404,
      "zz": 3405,
      "mp": 3406,
      "icks": 3407,
      "Ġsoftware": 3408,
      "ables": 3409,
      "Ġdrive": 3410,
      "Ġfootball": 3411,
      "ĠLeague": 3412,
      "Ġahead": 3413,
      "ĠRober": 3414,
      "fort": 3415,
      "FL": 3416,
      "ĠComp": 3417,
      "Ġsle": 3418,
      "ara": 3419,
      "Ġeffects": 3420,
      "ĠDis": 3421,
      "Ġspot": 3422,
      "arian": 3423,
      "astic": 3424,
      "ago": 3425,
      "Ġrob": 3426,
      "Ġresearc": 3427,
      "inated": 3428,
      "icated": 3429,
      "Ġagency": 3430,
      "Ġmob": 3431,
      "egr": 3432,
      "Ġrock": 3433,
      "ĠMinister": 3434,
      "Ġconsist": 3435,
      "Ġcorpor": 3436,
      "Ġcomplex": 3437,
      "Ġselect": 3438,
      "Ġcouldn": 3439,
      "rowd": 3440,
      "Ġreceive": 3441,
      "ĠTexas": 3442,
      "Ġincludes": 3443,
      "Ġcentury": 3444,
      "using": 3445,
      "iment": 3446,
      "ford": 3447,
      "Ġnature": 3448,
      "Ġdifference": 3449,
      "Ġguys": 3450,
      "ĠDemocrats": 3451,
      "Ġimmediately": 3452,
      "Ġdark": 3453,
      "Ġmyself": 3454,
      "ĠOur": 3455,
      "anch": 3456,
      "aughter": 3457,
      "Ġdesigned": 3458,
      "Ġtro": 3459,
      "Ġadditional": 3460,
      "Ġorganization": 3461,
      "ĠLike": 3462,
      "Ġconcept": 3463,
      "itute": 3464,
      "Ġconference": 3465,
      "Ġunf": 3466,
      "Ġdeg": 3467,
      "US": 3468,
      "?\"": 3469,
      "ĠII": 3470,
      "ĠTor": 3471,
      "Ġscore": 3472,
      "Ġfile": 3473,
      "Ġhappy": 3474,
      "Ġplatform": 3475,
      "aph": 3476,
      "Ġver": 3477,
      "Ġmoved": 3478,
      "ĠBel": 3479,
      "orney": 3480,
      "Ġopin": 3481,
      "sp": 3482,
      "ĠGet": 3483,
      "wise": 3484,
      "Ġclos": 3485,
      "Ġrecomm": 3486,
      "Ġrelative": 3487,
      "itor": 3488,
      "Ġmaybe": 3489,
      "Ġcris": 3490,
      "Ġpassed": 3491,
      "agon": 3492,
      "Ġnom": 3493,
      "add": 3494,
      "Ġgone": 3495,
      "Ġblog": 3496,
      "Ġ60": 3497,
      "ĠMart": 3498,
      "Ġcounter": 3499,
      "Ġil": 3500,
      "BI": 3501,
      "irth": 3502,
      "Ġ(@": 3503,
      "iles": 3504,
      "Ġpositive": 3505,
      "Ġsafety": 3506,
      "icient": 3507,
      "ĠGreen": 3508,
      "ĠAlthough": 3509,
      "ĠGovern": 3510,
      "ilies": 3511,
      "Ġlaunch": 3512,
      "bur": 3513,
      "arr": 3514,
      "Ġreligious": 3515,
      "rupt": 3516,
      "Ġnecessary": 3517,
      "Ġsuspect": 3518,
      "Ġut": 3519,
      "hest": 3520,
      "roy": 3521,
      "Ġclean": 3522,
      "Ġdisapp": 3523,
      "Ġanalysis": 3524,
      "ĠAssoci": 3525,
      "Ġ196": 3526,
      "Ġconditions": 3527,
      "ĠDay": 3528,
      "ĠBen": 3529,
      "iny": 3530,
      "Ġexecutive": 3531,
      "Ġcandidate": 3532,
      "Ġprec": 3533,
      "Ġcharacters": 3534,
      "Ġepis": 3535,
      "Ġtour": 3536,
      "Ġcast": 3537,
      "airs": 3538,
      "aches": 3539,
      "band": 3540,
      "Ġwall": 3541,
      "Ġthousands": 3542,
      "Ġyourself": 3543,
      "Ġsil": 3544,
      "new": 3545,
      "omen": 3546,
      "Ġnote": 3547,
      "adem": 3548,
      "Ġsubst": 3549,
      "itness": 3550,
      "EC": 3551,
      "Ġbrain": 3552,
      "riage": 3553,
      "Ġmeaning": 3554,
      "Ġcollege": 3555,
      "Ġpolitics": 3556,
      "olute": 3557,
      "Ġcommand": 3558,
      "ston": 3559,
      "Ġnuclear": 3560,
      "Ġbeginning": 3561,
      "Ġyes": 3562,
      "Ġcentral": 3563,
      "AM": 3564,
      "Ġband": 3565,
      "Ġreasons": 3566,
      "Ġhelped": 3567,
      "ĠSchool": 3568,
      "Ġign": 3569,
      "itation": 3570,
      "ĠVal": 3571,
      "Ġcharge": 3572,
      "ĠTom": 3573,
      "Ġdate": 3574,
      "ĠAir": 3575,
      "Ġdetail": 3576,
      "ampions": 3577,
      "Ġencour": 3578,
      "Ġfailed": 3579,
      "Ġfirm": 3580,
      "Ġphysical": 3581,
      "ĠGermany": 3582,
      "ivity": 3583,
      "Ġmoving": 3584,
      "wood": 3585,
      "ĠReg": 3586,
      "ĠCap": 3587,
      "ĠWind": 3588,
      "Ph": 3589,
      "rief": 3590,
      "Ġappears": 3591,
      "Ġsenior": 3592,
      "ression": 3593,
      "just": 3594,
      "Ġsat": 3595,
      "23": 3596,
      "venue": 3597,
      "Ġaim": 3598,
      "Ġdevice": 3599,
      "urning": 3600,
      "Ġtitle": 3601,
      "Ġswe": 3602,
      "Ġnice": 3603,
      "ĠServ": 3604,
      "Ġalleged": 3605,
      "berg": 3606,
      "Ġpark": 3607,
      "Ġcool": 3608,
      "ĠEnglish": 3609,
      "ocked": 3610,
      "ĠSyria": 3611,
      "men": 3612,
      "ĠBecause": 3613,
      "Ġcontribut": 3614,
      "ports": 3615,
      "Ġfan": 3616,
      "ĠBre": 3617,
      "Ġspending": 3618,
      "Ġestim": 3619,
      "orks": 3620,
      "ĠHam": 3621,
      "chan": 3622,
      "ĠPeople": 3623,
      "ext": 3624,
      "Ġbal": 3625,
      "OT": 3626,
      "ĠFrench": 3627,
      "Ġsche": 3628,
      "Ġtwe": 3629,
      "Ġcompared": 3630,
      "Ġshown": 3631,
      "ĠSmith": 3632,
      "Ġincome": 3633,
      "Ġlimited": 3634,
      "ĠGeorge": 3635,
      "Ġrefer": 3636,
      "Ġthrow": 3637,
      "ĠHigh": 3638,
      "Ġbattle": 3639,
      "Ġeyes": 3640,
      "Ġtreatment": 3641,
      "ĠLa": 3642,
      "Ġrule": 3643,
      "Ġdoor": 3644,
      "Ġpresidential": 3645,
      "Ġdisp": 3646,
      "aling": 3647,
      "more": 3648,
      "Ġcopy": 3649,
      "Ġeventually": 3650,
      "erve": 3651,
      "Ġsal": 3652,
      "Ġ\\": 3653,
      "Ġschools": 3654,
      "ĠDuring": 3655,
      "Ġx": 3656,
      "iable": 3657,
      "ares": 3658,
      "Ġlargest": 3659,
      "ĠEU": 3660,
      "yan": 3661,
      "Ġbooks": 3662,
      "Ġtruth": 3663,
      "Ġmix": 3664,
      "Ġtrust": 3665,
      "Ġmeant": 3666,
      "Ġstra": 3667,
      "Ġfeed": 3668,
      "Ġbeaut": 3669,
      "Ġcrime": 3670,
      "Ġleague": 3671,
      "bum": 3672,
      "Ġpowerful": 3673,
      "Ġcrowd": 3674,
      "Ġconfir": 3675,
      "Ġfrequ": 3676,
      "Ġfollowed": 3677,
      "ĠAnt": 3678,
      "Ġcitizens": 3679,
      "Ġchallenge": 3680,
      "urance": 3681,
      "ĠInternational": 3682,
      "enty": 3683,
      "encies": 3684,
      "Ġautom": 3685,
      "ĠMex": 3686,
      "Ġtouch": 3687,
      "Ġallows": 3688,
      "aint": 3689,
      "Ġaware": 3690,
      "ĠJer": 3691,
      "Ġreached": 3692,
      "They": 3693,
      "Ġbrother": 3694,
      "ĠBrown": 3695,
      "Ġforced": 3696,
      "Ġstreng": 3697,
      "ev": 3698,
      "Ġcrisis": 3699,
      "Ġfamilies": 3700,
      "ĠRob": 3701,
      "ufact": 3702,
      "ĠArt": 3703,
      "Ġpeace": 3704,
      "Ġclearly": 3705,
      "ategy": 3706,
      "ĠBu": 3707,
      "Ġcorrect": 3708,
      "Ġmeasure": 3709,
      "Ġeasily": 3710,
      "ĠTod": 3711,
      "Ġcredit": 3712,
      "lease": 3713,
      "Ġcat": 3714,
      "Ġplant": 3715,
      "Ġesc": 3716,
      "Ġfeature": 3717,
      "Ġ29": 3718,
      "ĠMet": 3719,
      "Ġideas": 3720,
      "45": 3721,
      "ressed": 3722,
      "Ġmanager": 3723,
      "Ġarch": 3724,
      "Ġknowledge": 3725,
      "aby": 3726,
      "Ġactions": 3727,
      "ĠAdvertisement": 3728,
      "Ġgrad": 3729,
      "ĠAustralia": 3730,
      "ĠTrans": 3731,
      "Ġuses": 3732,
      "ĠTwo": 3733,
      "ĠDef": 3734,
      "Ġgives": 3735,
      "cul": 3736,
      "Ġpus": 3737,
      "35": 3738,
      "Ġactivity": 3739,
      "Ġstyle": 3740,
      "ken": 3741,
      "Ġsuccessful": 3742,
      "iance": 3743,
      "Ġdrop": 3744,
      "Ġoverall": 3745,
      "Ġvoice": 3746,
      "Ġsmart": 3747,
      "Ġpromot": 3748,
      "Ġweapons": 3749,
      "Ġanaly": 3750,
      "ĠCouncil": 3751,
      "Ġdecades": 3752,
      "Ġsigned": 3753,
      "ĠGeneral": 3754,
      "Ġunique": 3755,
      "Ġdeveloped": 3756,
      "amb": 3757,
      "Ġindividuals": 3758,
      "oes": 3759,
      "Ġilleg": 3760,
      "Ġfine": 3761,
      "Ġsusp": 3762,
      "Ġrap": 3763,
      "craft": 3764,
      "ĠBer": 3765,
      "Ġspend": 3766,
      "Ġdraft": 3767,
      "27": 3768,
      "aud": 3769,
      "Ġaltern": 3770,
      "Ġcustomers": 3771,
      "ĠMac": 3772,
      "pre": 3773,
      "iring": 3774,
      "ĠUnion": 3775,
      "ĠEarth": 3776,
      "26": 3777,
      "Ġsave": 3778,
      "ĠArab": 3779,
      "ET": 3780,
      "Ġbenefits": 3781,
      "Ġappeared": 3782,
      "Ġmist": 3783,
      "Ġrise": 3784,
      "levision": 3785,
      "Ġprojects": 3786,
      "Ġlif": 3787,
      "Ġrates": 3788,
      "As": 3789,
      "bon": 3790,
      "Ġfully": 3791,
      "Ġdisplay": 3792,
      "board": 3793,
      "ĠStud": 3794,
      "Ġpreviously": 3795,
      "Ġspir": 3796,
      "Ġpredict": 3797,
      "ĠAngel": 3798,
      "OM": 3799,
      "Ġdise": 3800,
      "uty": 3801,
      "Ġnoted": 3802,
      "Ġsend": 3803,
      "Ġcriminal": 3804,
      "ĠAlso": 3805,
      "Ġsto": 3806,
      "owers": 3807,
      "Ġreform": 3808,
      "ĠBit": 3809,
      "istance": 3810,
      "Ġintelligence": 3811,
      "itely": 3812,
      "Ġcolor": 3813,
      "Ġhar": 3814,
      "Ġcontinues": 3815,
      "ĠGold": 3816,
      "ĠYour": 3817,
      "icit": 3818,
      "ĠFlor": 3819,
      "ville": 3820,
      "):": 3821,
      "vin": 3822,
      "Ġlarger": 3823,
      "Ġconflic": 3824,
      "Ġreflect": 3825,
      "nown": 3826,
      "ĠOh": 3827,
      "onents": 3828,
      "ocks": 3829,
      "dd": 3830,
      "secut": 3831,
      "ube": 3832,
      "ĠLaw": 3833,
      "Ġarm": 3834,
      "ĠImage": 3835,
      "ero": 3836,
      "Ġlines": 3837,
      "Ġrelated": 3838,
      "Ġapparent": 3839,
      "ĠOp": 3840,
      "ĠScott": 3841,
      "Ġadvant": 3842,
      "Ġspread": 3843,
      "Ġexpand": 3844,
      "change": 3845,
      "Ġseemed": 3846,
      "mar": 3847,
      "orter": 3848,
      "Ġemb": 3849,
      "oti": 3850,
      "resh": 3851,
      "lements": 3852,
      "ĠChristian": 3853,
      "Ġang": 3854,
      "Ġgreen": 3855,
      "Ġprimary": 3856,
      "Ġweb": 3857,
      "Ġgoals": 3858,
      "Ġtraditional": 3859,
      "Ġhospital": 3860,
      "part": 3861,
      "Ġgreater": 3862,
      "Ġagreement": 3863,
      "Ġprint": 3864,
      "ĠAnother": 3865,
      "Ġpolicies": 3866,
      "ID": 3867,
      "Ġtraff": 3868,
      "Ġcommer": 3869,
      "Ġtrou": 3870,
      "Ġlic": 3871,
      "iders": 3872,
      "ĠMatt": 3873,
      "Ġincident": 3874,
      "osh": 3875,
      "Ġhighly": 3876,
      "Ġbehavior": 3877,
      "Ġminor": 3878,
      "IA": 3879,
      "Ġsales": 3880,
      "ĠFollow": 3881,
      "rol": 3882,
      "ĠMo": 3883,
      "Ġdetermin": 3884,
      "EL": 3885,
      "Ġpsych": 3886,
      "Ġkept": 3887,
      "ĠAlex": 3888,
      "ounds": 3889,
      "Ġbeat": 3890,
      "ĠHillary": 3891,
      "Ġattract": 3892,
      "Ġprem": 3893,
      "Ġstraight": 3894,
      "Ġplaces": 3895,
      "ĠChar": 3896,
      "Ġpush": 3897,
      "Ġstudies": 3898,
      "ĠInternet": 3899,
      "box": 3900,
      "Ġresearchers": 3901,
      "ĠYes": 3902,
      "clus": 3903,
      "Ġstation": 3904,
      "Ġstatus": 3905,
      "iverse": 3906,
      "Ġeye": 3907,
      "antly": 3908,
      "ĠAtt": 3909,
      "ĠMag": 3910,
      "Ġfavorite": 3911,
      "Ġwhatever": 3912,
      "while": 3913,
      "ĠâĢ¢": 3914,
      "dom": 3915,
      "ĠCr": 3916,
      "Ġcaused": 3917,
      "Ġ2007": 3918,
      "Ġenem": 3919,
      "Ġresources": 3920,
      "Ġshooting": 3921,
      "Ġcities": 3922,
      "âĢĶâĢĶ": 3923,
      "Ġlaun": 3924,
      "net": 3925,
      "Ġemot": 3926,
      "roll": 3927,
      "Ġintegr": 3928,
      "Ġorigin": 3929,
      "ĠMod": 3930,
      "Ġproduce": 3931,
      "Ġlawy": 3932,
      "Ġprograms": 3933,
      "Ġcalling": 3934,
      "ingly": 3935,
      "Ġrare": 3936,
      "iced": 3937,
      "Ġmission": 3938,
      "Ġknows": 3939,
      "que": 3940,
      "Ġpun": 3941,
      "ĠEngland": 3942,
      "yl": 3943,
      "Ġpatients": 3944,
      "Ġfighting": 3945,
      "Ġowners": 3946,
      "Ġfeeling": 3947,
      "Ġwait": 3948,
      "Ġchoose": 3949,
      "Ġregular": 3950,
      "term": 3951,
      "Ġkick": 3952,
      "Ġalbum": 3953,
      "ĠBay": 3954,
      "Ġstreet": 3955,
      "Ġorganiz": 3956,
      "Ġnormal": 3957,
      "Ġfa": 3958,
      "Ġhaven": 3959,
      "sey": 3960,
      "Ġpicture": 3961,
      "oles": 3962,
      "Ġwonder": 3963,
      "Ġstrategy": 3964,
      "Ġteac": 3965,
      "Ġmanufact": 3966,
      "Ġoptions": 3967,
      "Ġliter": 3968,
      "wide": 3969,
      "Ġadop": 3970,
      "Ġsources": 3971,
      "ĠChic": 3972,
      "Ġcharges": 3973,
      "AP": 3974,
      "Ġraised": 3975,
      "Ġwhom": 3976,
      "ĠAP": 3977,
      "Ġgrand": 3978,
      "Ġenter": 3979,
      "Ġemployees": 3980,
      "Ġtend": 3981,
      "Ġclaimed": 3982,
      "ĠSun": 3983,
      "Ġfunding": 3984,
      "ĠPre": 3985,
      "Ġleaving": 3986,
      "ING": 3987,
      "Ġfeet": 3988,
      "onent": 3989,
      "iled": 3990,
      "Ġdream": 3991,
      "21": 3992,
      "ĠHealth": 3993,
      "Ġended": 3994,
      "ĠSam": 3995,
      "gen": 3996,
      "www": 3997,
      "Ġmemory": 3998,
      "Ġprices": 3999,
      "Ch": 4000,
      "29": 4001,
      ".âĢĻ": 4002,
      "ado": 4003,
      "Ġweight": 4004,
      "Ġlik": 4005,
      "olic": 4006,
      "ifying": 4007,
      "Ġadding": 4008,
      "Ġlose": 4009,
      "Ġminister": 4010,
      "Ġbenefit": 4011,
      "28": 4012,
      "Ġnames": 4013,
      "Ġpros": 4014,
      "ĠPhil": 4015,
      "Ġdire": 4016,
      "100": 4017,
      "Ġfemale": 4018,
      "ĠFlorida": 4019,
      "ĠPort": 4020,
      "ĠStep": 4021,
      "uman": 4022,
      "EO": 4023,
      "ki": 4024,
      "rs": 4025,
      "Ġadult": 4026,
      "ga": 4027,
      "Ġbirth": 4028,
      "ĠFrance": 4029,
      "Ġgold": 4030,
      "Ġinvestment": 4031,
      "Ġconcerns": 4032,
      "Ġestablish": 4033,
      "Ġshut": 4034,
      "earch": 4035,
      "Ġdemonstr": 4036,
      "Ġbasic": 4037,
      "Ġcry": 4038,
      "Ġactual": 4039,
      "Ġarg": 4040,
      "outhern": 4041,
      "Ġsupposed": 4042,
      "Ġabsolute": 4043,
      "Ġcreating": 4044,
      "Ġir": 4045,
      "ĠRel": 4046,
      "ĠUnder": 4047,
      "Ġhappens": 4048,
      "ota": 4049,
      "Ġslight": 4050,
      "roid": 4051,
      "Ġauthorities": 4052,
      "ica": 4053,
      "org": 4054,
      "Ġimpl": 4055,
      "Ġsection": 4056,
      "Ġacqu": 4057,
      "Ġpattern": 4058,
      "Ġmarriage": 4059,
      "ĠLiber": 4060,
      "ribution": 4061,
      "vere": 4062,
      "ĠChicago": 4063,
      "ength": 4064,
      "Ġappl": 4065,
      "Ġeth": 4066,
      "Ġtheory": 4067,
      "________": 4068,
      "alse": 4069,
      "ĠInstead": 4070,
      "ĠLou": 4071,
      "see": 4072,
      "ĠOnce": 4073,
      "ĠBush": 4074,
      "Ġscen": 4075,
      "Ġseeing": 4076,
      "Ġmechan": 4077,
      "Ġfreedom": 4078,
      "Ġjump": 4079,
      "Ġtemper": 4080,
      "ram": 4081,
      "icial": 4082,
      "Ġensure": 4083,
      "udd": 4084,
      "mine": 4085,
      "ona": 4086,
      "Ġenforce": 4087,
      "Ġvirt": 4088,
      "33": 4089,
      "inn": 4090,
      "Ġoffered": 4091,
      "ya": 4092,
      "ĠSl": 4093,
      "Ġpropos": 4094,
      "Ġvac": 4095,
      "ĠInc": 4096,
      "ipped": 4097,
      "Ġweekend": 4098,
      ".'": 4099,
      "uana": 4100,
      "Ġbeg": 4101,
      "Ġparties": 4102,
      "70": 4103,
      "RE": 4104,
      "Ġapplication": 4105,
      "Ġinstall": 4106,
      "ĠWall": 4107,
      "Ġchair": 4108,
      "Ġvalues": 4109,
      "âĢĿ,": 4110,
      "ĠFranc": 4111,
      "Ġmostly": 4112,
      "lick": 4113,
      "Ġwilling": 4114,
      "Ġcommit": 4115,
      "ĠAny": 4116,
      "Ġtrial": 4117,
      "Ġjudge": 4118,
      "ĠMil": 4119,
      "ĠMike": 4120,
      "Ġarrested": 4121,
      "inger": 4122,
      "Ġrank": 4123,
      "Ġproduced": 4124,
      "arliam": 4125,
      "Ġmassive": 4126,
      "ĠSanders": 4127,
      "Ġonto": 4128,
      "ipp": 4129,
      "Ġresidents": 4130,
      "ront": 4131,
      "ĠGreat": 4132,
      "vest": 4133,
      "itude": 4134,
      "Ġborn": 4135,
      "Ġbelieved": 4136,
      "Ġheavy": 4137,
      "Ġassault": 4138,
      "mark": 4139,
      "Ġthus": 4140,
      "ĠTer": 4141,
      "estic": 4142,
      "cher": 4143,
      "igned": 4144,
      "Ġjoin": 4145,
      "Ġetc": 4146,
      "Ġconfirmed": 4147,
      "Ġcondition": 4148,
      "Ġimages": 4149,
      "Ġindependent": 4150,
      "SA": 4151,
      "Ġdrink": 4152,
      "Ġprofessional": 4153,
      "ĠBig": 4154,
      "Ġperm": 4155,
      "ords": 4156,
      "Ġrecords": 4157,
      "istry": 4158,
      "ste": 4159,
      "acing": 4160,
      "ĠAre": 4161,
      "Ġlearned": 4162,
      "ĠCommission": 4163,
      "ĠSecret": 4164,
      "500": 4165,
      "ĠPress": 4166,
      "Ġdevices": 4167,
      "ĠSecurity": 4168,
      "iation": 4169,
      "ĠPalest": 4170,
      "Ġinfluence": 4171,
      "Ġqual": 4172,
      "ĠGame": 4173,
      "Ġtelevision": 4174,
      "ĠWestern": 4175,
      "arliament": 4176,
      "Ġrevealed": 4177,
      "ĠUs": 4178,
      "Ġposted": 4179,
      "Ġadvoc": 4180,
      "Ġbrief": 4181,
      "Ġserve": 4182,
      "Ġshowing": 4183,
      "rian": 4184,
      "rant": 4185,
      "ijuana": 4186,
      "Ġreduce": 4187,
      "But": 4188,
      "Ġcelebr": 4189,
      "Ġoperations": 4190,
      "ags": 4191,
      "Ġcru": 4192,
      "Ġdistrict": 4193,
      "Ġmount": 4194,
      "ĠMicro": 4195,
      "Ġfat": 4196,
      "ented": 4197,
      "iful": 4198,
      "Ġdollars": 4199,
      "Ġasking": 4200,
      "gers": 4201,
      "aked": 4202,
      "pri": 4203,
      "Ġtick": 4204,
      "ĠSub": 4205,
      "Ġmanagement": 4206,
      "Ġmer": 4207,
      "Ġmachine": 4208,
      "Ġborder": 4209,
      "ĠDel": 4210,
      "ĠJustice": 4211,
      "ties": 4212,
      "ĠAc": 4213,
      "Ġcritical": 4214,
      "orial": 4215,
      "Ġprovides": 4216,
      "Ġbed": 4217,
      "Ġnegoti": 4218,
      "Ġruns": 4219,
      "90": 4220,
      "Ġnotice": 4221,
      "Ġteach": 4222,
      "OU": 4223,
      "ription": 4224,
      "Ġwild": 4225,
      "Ġpurpose": 4226,
      "rial": 4227,
      "Ġlearning": 4228,
      "ocr": 4229,
      "soft": 4230,
      "Ġaudience": 4231,
      "Ġopposition": 4232,
      "ĠCommun": 4233,
      "Ġunc": 4234,
      "Ġbrand": 4235,
      "Ġwat": 4236,
      "Ġcars": 4237,
      "ĠMad": 4238,
      "ĠFound": 4239,
      "Ġmale": 4240,
      "Ġdigital": 4241,
      "Ġchurch": 4242,
      "Ġhero": 4243,
      "Ġeffective": 4244,
      "ĠWil": 4245,
      "Ġstructure": 4246,
      "ĠJohnson": 4247,
      "ĠThose": 4248,
      "ĠMal": 4249,
      "no": 4250,
      "ĠFrancis": 4251,
      "What": 4252,
      "icians": 4253,
      "ĠChris": 4254,
      "Ġmiles": 4255,
      "Ġsolution": 4256,
      "Ġdefend": 4257,
      "cell": 4258,
      "Ġinterested": 4259,
      "Ġchem": 4260,
      "Ġvill": 4261,
      "Ġagreed": 4262,
      "Ġworse": 4263,
      "hicle": 4264,
      "Ġcore": 4265,
      "Ġsleep": 4266,
      "Ġcoal": 4267,
      "Ġopinion": 4268,
      "Ġder": 4269,
      "Ġdebt": 4270,
      "Ġgenerally": 4271,
      "ĠSee": 4272,
      "Ġrestrict": 4273,
      "ection": 4274,
      "ĠKorea": 4275,
      "Ġopening": 4276,
      "point": 4277,
      "ĠPhoto": 4278,
      "ĠDirect": 4279,
      "That": 4280,
      "ĠNFL": 4281,
      "ĠOffice": 4282,
      "ĠCommittee": 4283,
      "ĠLab": 4284,
      "ĠTy": 4285,
      "Ġoffers": 4286,
      "ĠUN": 4287,
      "Ġdestroy": 4288,
      "ĠBank": 4289,
      "ĠCanadian": 4290,
      "ae": 4291,
      "Ġcamera": 4292,
      "Ġradio": 4293,
      "Ġexplain": 4294,
      "ĠProf": 4295,
      "ĠPri": 4296,
      "IL": 4297,
      "ĠAM": 4298,
      "gency": 4299,
      "Ġ80": 4300,
      "Ġbasis": 4301,
      "Ġice": 4302,
      "ĠVir": 4303,
      "Ġpartners": 4304,
      "orthern": 4305,
      "ĠÐ": 4306,
      "Ġspecies": 4307,
      "ĠTre": 4308,
      "Ġdefe": 4309,
      "Ġobtain": 4310,
      "ĠCup": 4311,
      "And": 4312,
      "ĠRobert": 4313,
      "Ġreplace": 4314,
      "....": 4315,
      "Ġhighest": 4316,
      "Ġmillions": 4317,
      "Ġproposed": 4318,
      "ĠBoth": 4319,
      "ĠDist": 4320,
      "AD": 4321,
      "ĠLeg": 4322,
      "ograph": 4323,
      "Ġresponsible": 4324,
      "rav": 4325,
      "rants": 4326,
      "Ġdaily": 4327,
      "Ġtypes": 4328,
      "icip": 4329,
      "Ġoccas": 4330,
      "ĠChurch": 4331,
      "ĠPM": 4332,
      "ĠJud": 4333,
      "ĠThom": 4334,
      "Ġtrain": 4335,
      "Ġnor": 4336,
      "Ġunderstanding": 4337,
      "Ġadvantage": 4338,
      "Ġnorth": 4339,
      "Ġmur": 4340,
      "ĠDet": 4341,
      "Ġscientists": 4342,
      "Ġlimit": 4343,
      "ĠToday": 4344,
      "ĠTHE": 4345,
      "Ġexplained": 4346,
      "coming": 4347,
      "Ġhus": 4348,
      "Ġcommercial": 4349,
      "Ġstock": 4350,
      "ipe": 4351,
      "Ġdecade": 4352,
      "Ġspl": 4353,
      "ĠCle": 4354,
      "Ġsurround": 4355,
      "illing": 4356,
      "Ġassum": 4357,
      "Ġbelief": 4358,
      "ava": 4359,
      "Ġbecoming": 4360,
      "Ġharm": 4361,
      "Ġdirection": 4362,
      "oly": 4363,
      "Ġship": 4364,
      "Ġbecomes": 4365,
      "ĠWindows": 4366,
      "Ġfloor": 4367,
      "Ġreject": 4368,
      "57": 4369,
      "ios": 4370,
      "ĠSil": 4371,
      "Ġunit": 4372,
      "Ġachieve": 4373,
      "Ġactive": 4374,
      "Ġge": 4375,
      "ĠIslamic": 4376,
      "Ġneighbor": 4377,
      "ĠRo": 4378,
      "lished": 4379,
      "orrow": 4380,
      "Ġ31": 4381,
      "ĠFox": 4382,
      "Ġdaughter": 4383,
      "ĠIsraeli": 4384,
      "ĠBritain": 4385,
      "Ġhundreds": 4386,
      "BA": 4387,
      "ĠOut": 4388,
      "Ġannounce": 4389,
      "ĠUk": 4390,
      "ĠDespite": 4391,
      "za": 4392,
      "Ġtask": 4393,
      "olf": 4394,
      "known": 4395,
      "Ġinitial": 4396,
      "Ġload": 4397,
      "ĠSur": 4398,
      "Ġstrik": 4399,
      "Ġfit": 4400,
      "Ġconcern": 4401,
      "Ġopened": 4402,
      "well": 4403,
      "Ġlegislation": 4404,
      "Ġputting": 4405,
      "ĠHall": 4406,
      "Ġbomb": 4407,
      "Ġseparate": 4408,
      "met": 4409,
      "Ġrat": 4410,
      "Ġcontain": 4411,
      "uries": 4412,
      "bert": 4413,
      "ih": 4414,
      "Ġamaz": 4415,
      "Ġaccused": 4416,
      "NA": 4417,
      "Ġunlike": 4418,
      "Ġextremely": 4419,
      "Ġbottom": 4420,
      "Ġinternet": 4421,
      "ĠMer": 4422,
      "Ġsud": 4423,
      "Ġraise": 4424,
      "Ġnegative": 4425,
      "CC": 4426,
      "house": 4427,
      "44": 4428,
      "ĠTheir": 4429,
      "Ġsurface": 4430,
      "ference": 4431,
      "Ġphoto": 4432,
      "Ġincred": 4433,
      "Ġwinning": 4434,
      "Ġ2006": 4435,
      "Ġgeneration": 4436,
      "Ġargument": 4437,
      "Ġguess": 4438,
      "witch": 4439,
      "Ġcontrovers": 4440,
      "ander": 4441,
      "isted": 4442,
      "Ġexisting": 4443,
      "ĠFrank": 4444,
      "ĠWho": 4445,
      "Ġserved": 4446,
      "equ": 4447,
      "====": 4448,
      "Ġassociated": 4449,
      "BS": 4450,
      "Ġvictims": 4451,
      "Ġran": 4452,
      "Ġnine": 4453,
      "Ġdocuments": 4454,
      "Ġeasier": 4455,
      "Ġshared": 4456,
      "Ġblue": 4457,
      "GB": 4458,
      "atically": 4459,
      "Ġkid": 4460,
      "works": 4461,
      "Ġ35": 4462,
      "lands": 4463,
      "Ġreturned": 4464,
      "Ġcommunities": 4465,
      "azine": 4466,
      "Ġelectric": 4467,
      "ĠGood": 4468,
      "Ġvs": 4469,
      "ĠKen": 4470,
      "ĠYet": 4471,
      "Ġpet": 4472,
      "OL": 4473,
      "ĠMiss": 4474,
      "Ġaspect": 4475,
      "ustr": 4476,
      "Ġbackground": 4477,
      "Ġamb": 4478,
      "ears": 4479,
      "Ġdie": 4480,
      "Ġ90": 4481,
      "Ġlocation": 4482,
      "Ġsolid": 4483,
      "Ġvehicle": 4484,
      "ĠPet": 4485,
      "Ġdouble": 4486,
      "Ġsupported": 4487,
      "aks": 4488,
      "Ġillegal": 4489,
      "acity": 4490,
      "ĠKh": 4491,
      "Ġhearing": 4492,
      "ĠInter": 4493,
      "Ġsites": 4494,
      "Ġinstance": 4495,
      "Ġhack": 4496,
      "odes": 4497,
      "Ġcoverage": 4498,
      "miss": 4499,
      "Ġcomfort": 4500,
      "Ġleadership": 4501,
      "Ġstated": 4502,
      "Ġtraffic": 4503,
      "Ġcards": 4504,
      "ĠGree": 4505,
      "ortunately": 4506,
      "ĠVer": 4507,
      "ĠJeff": 4508,
      "andon": 4509,
      "ada": 4510,
      "Ġinsurance": 4511,
      "Ġdepartment": 4512,
      "Ġrequires": 4513,
      "ĠInstitute": 4514,
      "ĠNor": 4515,
      "Ġnotes": 4516,
      "Ġhair": 4517,
      "zen": 4518,
      "Ġmap": 4519,
      "Ġepisode": 4520,
      "Ġlaunched": 4521,
      "Ġrestaur": 4522,
      "Ġeat": 4523,
      "Ġded": 4524,
      "36": 4525,
      "Ġviews": 4526,
      "ĠFBI": 4527,
      "Ġwatching": 4528,
      "Ġframe": 4529,
      "Ġfaith": 4530,
      "Ġissued": 4531,
      "Ġwealth": 4532,
      "Ġtransfer": 4533,
      "Ġcompetition": 4534,
      "Ġcateg": 4535,
      "iliar": 4536,
      "Ġdoubt": 4537,
      "gl": 4538,
      "32": 4539,
      "istics": 4540,
      "iller": 4541,
      "Ġmax": 4542,
      "ĠLos": 4543,
      "Ġrefere": 4544,
      "Ġdefinitely": 4545,
      "ugg": 4546,
      "ĠEv": 4547,
      "asy": 4548,
      "ĠBack": 4549,
      "ĠFore": 4550,
      "ography": 4551,
      "Ġanimals": 4552,
      "FC": 4553,
      "Ġcatch": 4554,
      "ĠQue": 4555,
      "ribe": 4556,
      "ibrary": 4557,
      "Ġdangerous": 4558,
      "oman": 4559,
      "Ġcharged": 4560,
      "ias": 4561,
      "Ġdiscussion": 4562,
      "inate": 4563,
      "Ġreact": 4564,
      "ĠCur": 4565,
      "Ġcommittee": 4566,
      "Ġmarijuana": 4567,
      "Ġspoke": 4568,
      "ĠJones": 4569,
      "48": 4570,
      "Ġdriving": 4571,
      "itable": 4572,
      "ĠJim": 4573,
      "Ġrepeated": 4574,
      "Ġvictory": 4575,
      "ulf": 4576,
      "Ġsouth": 4577,
      "ĠSup": 4578,
      "Ġentirely": 4579,
      "Ġowner": 4580,
      "Ġfalse": 4581,
      "Ġfresh": 4582,
      "ĠRem": 4583,
      "eline": 4584,
      "ĠGroup": 4585,
      "Ġlabor": 4586,
      "ghan": 4587,
      "Ġcancer": 4588,
      "how": 4589,
      "ĠPlease": 4590,
      "Ġworst": 4591,
      "inct": 4592,
      "ĠCarol": 4593,
      "Ġsun": 4594,
      "Ġclosed": 4595,
      "Ġcells": 4596,
      "hem": 4597,
      "Ġtools": 4598,
      "Ġ70": 4599,
      "Ġbusinesses": 4600,
      "lant": 4601,
      "ĠDec": 4602,
      "Ġitems": 4603,
      "Ġsupporters": 4604,
      "Ġconservative": 4605,
      "Ġnovel": 4606,
      "la": 4607,
      "Ġtelling": 4608,
      "ĠTim": 4609,
      "going": 4610,
      "Ġfarm": 4611,
      "Ġcompar": 4612,
      "Ġsmaller": 4613,
      "Ġwel": 4614,
      "which": 4615,
      "Ġfuel": 4616,
      "spe": 4617,
      "ĠAmaz": 4618,
      "Ġplease": 4619,
      "Ġgrant": 4620,
      "Ġdrugs": 4621,
      "Ġtrend": 4622,
      "ĠGovernment": 4623,
      "Ġdriver": 4624,
      "ĠRichard": 4625,
      "Ġsuggested": 4626,
      "ribute": 4627,
      "resp": 4628,
      "Ġdiscovered": 4629,
      "arant": 4630,
      "ĠFe": 4631,
      "Ġoperation": 4632,
      "cont": 4633,
      "iling": 4634,
      "ius": 4635,
      "night": 4636,
      "ĠAfrica": 4637,
      "ĠMicrosoft": 4638,
      "ctors": 4639,
      "TC": 4640,
      "Ġnewsp": 4641,
      "Ġconcerned": 4642,
      "Ġfinding": 4643,
      "Ġplays": 4644,
      "ĠPC": 4645,
      "Ġbanks": 4646,
      "37": 4647,
      "Ġdisease": 4648,
      "Ġpartner": 4649,
      "ossible": 4650,
      "Ġmobile": 4651,
      "ampionship": 4652,
      "uing": 4653,
      "Ġcontext": 4654,
      "Ġtesting": 4655,
      "Ġcash": 4656,
      "ulated": 4657,
      "itz": 4658,
      "ario": 4659,
      "eah": 4660,
      "Ġgay": 4661,
      "rey": 4662,
      "Ġolder": 4663,
      "Ġtough": 4664,
      "Ġ2005": 4665,
      "Ġhusband": 4666,
      "ĠUkrain": 4667,
      "Ġwitness": 4668,
      "icy": 4669,
      "tered": 4670,
      "ĠST": 4671,
      "PA": 4672,
      "semb": 4673,
      "ĠBur": 4674,
      "ĠJo": 4675,
      "Ġannual": 4676,
      "Ġconsequ": 4677,
      "ĠRyan": 4678,
      "Ġwish": 4679,
      "vention": 4680,
      "rad": 4681,
      "Ġattend": 4682,
      "Ġallowing": 4683,
      "ĠVirgin": 4684,
      "iest": 4685,
      "overy": 4686,
      "!âĢĿ": 4687,
      "bing": 4688,
      "ĠAfrican": 4689,
      "ĠSal": 4690,
      "Ġjustice": 4691,
      "Ġenvironmental": 4692,
      "Ġbelieves": 4693,
      "igan": 4694,
      "Ġcaught": 4695,
      "Ġcollection": 4696,
      "ĠConst": 4697,
      "!!!!": 4698,
      "Ġtim": 4699,
      "Ġafford": 4700,
      "Ġtruly": 4701,
      "vant": 4702,
      "oms": 4703,
      "ĠTime": 4704,
      "38": 4705,
      "Ġconstruction": 4706,
      "ĠAssociation": 4707,
      "ĠJapanese": 4708,
      "Ġplaced": 4709,
      "Ġestablished": 4710,
      "win": 4711,
      "Ġalleg": 4712,
      "izes": 4713,
      "Ġplanning": 4714,
      "Ġjoined": 4715,
      "ĠPalestin": 4716,
      "ait": 4717,
      "Ġstrength": 4718,
      "Ġlargely": 4719,
      "anging": 4720,
      "ĠColle": 4721,
      "verse": 4722,
      "ĠThomas": 4723,
      "Ġcandidates": 4724,
      "Ġgirls": 4725,
      "Ġenforcement": 4726,
      "Ġstrateg": 4727,
      "NN": 4728,
      "Ġexerc": 4729,
      "Ġholding": 4730,
      "Ġrough": 4731,
      "Ġaccur": 4732,
      "ĠPak": 4733,
      "andom": 4734,
      "oyal": 4735,
      "Ġoccup": 4736,
      "ĠMary": 4737,
      "ication": 4738,
      "Ġmurder": 4739,
      "Ġintroduced": 4740,
      "ception": 4741,
      "bour": 4742,
      "Ġabuse": 4743,
      "Ġphotos": 4744,
      "Ġcook": 4745,
      "annel": 4746,
      "Ġtrip": 4747,
      "Ġpresence": 4748,
      "Ġhomes": 4749,
      "Ġsequ": 4750,
      "ocracy": 4751,
      "49": 4752,
      "ĠLouis": 4753,
      "ici": 4754,
      "pective": 4755,
      "ĠBitcoin": 4756,
      "Ġactivities": 4757,
      "Ġbul": 4758,
      "Ġsudden": 4759,
      "Ġtransport": 4760,
      "Ġprofessor": 4761,
      "icon": 4762,
      "55": 4763,
      "Ġdecide": 4764,
      "Ġspokesman": 4765,
      "nel": 4766,
      "bre": 4767,
      "Ġhousing": 4768,
      "Ġspirit": 4769,
      "Ġtells": 4770,
      "Ġlength": 4771,
      "Ġfant": 4772,
      "ĠAfghan": 4773,
      "phone": 4774,
      "Ġwaiting": 4775,
      "PS": 4776,
      "Ġsan": 4777,
      "Ġproviding": 4778,
      "ĠResearch": 4779,
      "Ġstopped": 4780,
      "cknow": 4781,
      "ãĤ": 4782,
      "ĠMartin": 4783,
      "isation": 4784,
      "onto": 4785,
      "Ġmentioned": 4786,
      "Ġnone": 4787,
      "owl": 4788,
      "Ġrecommend": 4789,
      "Ġmissing": 4790,
      "but": 4791,
      "Ġscale": 4792,
      "ĠMont": 4793,
      "ancy": 4794,
      "âĢľ": 4795,
      "ronic": 4796,
      "ocal": 4797,
      "ests": 4798,
      "Ġphil": 4799,
      "ups": 4800,
      "Ġinterests": 4801,
      "Ġuseful": 4802,
      "ĠJewish": 4803,
      "kins": 4804,
      "Ġskills": 4805,
      "Ġrich": 4806,
      "ĠRock": 4807,
      "Ġstick": 4808,
      "Ġconflict": 4809,
      "apped": 4810,
      "Ġcold": 4811,
      "01": 4812,
      "Ġdecisions": 4813,
      "kin": 4814,
      "Ġdeliver": 4815,
      "osure": 4816,
      "47": 4817,
      "Ġremoved": 4818,
      "ĠHoll": 4819,
      "mas": 4820,
      "oted": 4821,
      "Ġwindow": 4822,
      "ĠSupreme": 4823,
      "ulate": 4824,
      "Ġiniti": 4825,
      "cient": 4826,
      "Ġworry": 4827,
      "rick": 4828,
      "Ġhasn": 4829,
      "Ġ2000": 4830,
      "92": 4831,
      "ĠJon": 4832,
      "ĠMexico": 4833,
      "Ġearth": 4834,
      "Ġtherefore": 4835,
      "Ġdepend": 4836,
      "Ġfocused": 4837,
      "Ġmodels": 4838,
      "Ġrelatively": 4839,
      "EM": 4840,
      "what": 4841,
      "do": 4842,
      "cript": 4843,
      "Ġtaxes": 4844,
      "ĠTeam": 4845,
      "ĠIr": 4846,
      "Ġmeasures": 4847,
      "ĠJoe": 4848,
      "Ġidentity": 4849,
      "Ġcommitted": 4850,
      "Ġconversation": 4851,
      "ading": 4852,
      "Ġskin": 4853,
      "Ġarrived": 4854,
      "Ġconclud": 4855,
      "lig": 4856,
      "ĠPublic": 4857,
      "Ġcircum": 4858,
      "ighter": 4859,
      "Ġapply": 4860,
      "ady": 4861,
      "wing": 4862,
      "ications": 4863,
      "ĠCEO": 4864,
      "itutional": 4865,
      "place": 4866,
      "Ġprefer": 4867,
      "ĠAngeles": 4868,
      "Ġrefuge": 4869,
      "Ġidentified": 4870,
      "Ġupdate": 4871,
      "formation": 4872,
      "ĠPrime": 4873,
      "Ġfunds": 4874,
      "Ġimagine": 4875,
      "Ġotherwise": 4876,
      "Ġwriter": 4877,
      "ucky": 4878,
      "Ġ2018": 4879,
      "Ġexchange": 4880,
      "Ġfigures": 4881,
      "outs": 4882,
      "ĠGOP": 4883,
      "Ġsteps": 4884,
      "ĠAndroid": 4885,
      "hi": 4886,
      "Ġdegree": 4887,
      "Ġdownload": 4888,
      "Ġkeeping": 4889,
      "Ġconnection": 4890,
      "Ġsubsc": 4891,
      "Don": 4892,
      "iot": 4893,
      "Ġanimal": 4894,
      "ĠArmy": 4895,
      "rency": 4896,
      "ĠPut": 4897,
      "Ġcommission": 4898,
      "inter": 4899,
      "Ġoffensive": 4900,
      "ĠPakistan": 4901,
      "gar": 4902,
      "Ġinjury": 4903,
      "Ġmanaged": 4904,
      "Ġaggress": 4905,
      "Ġgain": 4906,
      "ST": 4907,
      "Ġfeels": 4908,
      "Ġscientific": 4909,
      "Ġattorney": 4910,
      "Ġdetect": 4911,
      "Ġappropri": 4912,
      "ĠFire": 4913,
      "Ġslightly": 4914,
      "ĠMars": 4915,
      "eal": 4916,
      "real": 4917,
      "Ġacknow": 4918,
      "ĠCamp": 4919,
      "ĠBern": 4920,
      "Ġbeautiful": 4921,
      "ania": 4922,
      "Ġfle": 4923,
      "Ġsetting": 4924,
      "gypt": 4925,
      "icles": 4926,
      "ĠSol": 4927,
      "Ġdat": 4928,
      "ĠOpen": 4929,
      "ula": 4930,
      "ĠPeter": 4931,
      "Ġauthority": 4932,
      "ĠSocial": 4933,
      "ĠBet": 4934,
      "Ġplanet": 4935,
      "Ġobvious": 4936,
      "cks": 4937,
      "agn": 4938,
      "eless": 4939,
      "Ġque": 4940,
      "Ġsuggests": 4941,
      "Ġsurvey": 4942,
      "Ġaward": 4943,
      "ĠMP": 4944,
      "hens": 4945,
      "onym": 4946,
      "Ġfourth": 4947,
      "Ġexpert": 4948,
      "SP": 4949,
      "Ġsust": 4950,
      "enses": 4951,
      "Ġbeer": 4952,
      "Ġtalks": 4953,
      "ĠCollege": 4954,
      "Ġ32": 4955,
      "suit": 4956,
      "uct": 4957,
      "umn": 4958,
      "Ġassess": 4959,
      "ĠIN": 4960,
      "Ġsports": 4961,
      "makers": 4962,
      "ĠPhot": 4963,
      "ancing": 4964,
      "ĠAmazon": 4965,
      "Ġfailure": 4966,
      "39": 4967,
      "ĠCentral": 4968,
      "Ġmicro": 4969,
      "Ġkilling": 4970,
      "cious": 4971,
      "isf": 4972,
      "Ġsupply": 4973,
      "rees": 4974,
      "ka": 4975,
      "ĠAN": 4976,
      "Ġregist": 4977,
      "season": 4978,
      "Ġstrike": 4979,
      "ĠSyrian": 4980,
      "Ġweak": 4981,
      "Ġremind": 4982,
      "ĠRub": 4983,
      "Ġstandards": 4984,
      "ĠMedic": 4985,
      "Ġappoint": 4986,
      "Ġcrew": 4987,
      "anda": 4988,
      "Ġhappening": 4989,
      "Ġdin": 4990,
      "ĠJose": 4991,
      "Ġprotection": 4992,
      "rig": 4993,
      "prof": 4994,
      "adium": 4995,
      "Ġrevolution": 4996,
      "Ġfinished": 4997,
      "ĠStr": 4998,
      "Ġmental": 4999,
      "ĠBob": 5000,
      "icide": 5001,
      "Ġguard": 5002,
      "oston": 5003,
      "Ġmere": 5004,
      "Ġstruct": 5005,
      "Ġresponsibility": 5006,
      "Ġfiles": 5007,
      "Ġinteract": 5008,
      "When": 5009,
      "agues": 5010,
      "Ġbigger": 5011,
      "ĠLu": 5012,
      "Ã¡": 5013,
      "hedul": 5014,
      "CH": 5015,
      "ĠFree": 5016,
      "aded": 5017,
      "Ġmig": 5018,
      "Ġdomestic": 5019,
      "ĠToronto": 5020,
      "ĠMedia": 5021,
      "odies": 5022,
      "Ġbaby": 5023,
      "Ġorganizations": 5024,
      "ĠDown": 5025,
      "ĠSecretary": 5026,
      "34": 5027,
      "ĠWatch": 5028,
      "ĠPlan": 5029,
      "DA": 5030,
      "Ġterrit": 5031,
      "vis": 5032,
      "ĠBook": 5033,
      "ynam": 5034,
      "].": 5035,
      "Ġcorner": 5036,
      "Ġtweet": 5037,
      "Ġcarried": 5038,
      "ansion": 5039,
      "lor": 5040,
      "Ġveter": 5041,
      "Ġgender": 5042,
      "Ġstarts": 5043,
      "ĠVe": 5044,
      "Ġdropped": 5045,
      "Ġplanned": 5046,
      "ĠMean": 5047,
      "Ġdefensive": 5048,
      "aren": 5049,
      "Ġfamiliar": 5050,
      "ĠMiddle": 5051,
      "ĠWeb": 5052,
      "ĠEr": 5053,
      "Ġelements": 5054,
      "Ġroll": 5055,
      "stream": 5056,
      "Ġinnov": 5057,
      "Ġthanks": 5058,
      "Ġvariety": 5059,
      "Ġsport": 5060,
      "Ġmulti": 5061,
      "Ġclick": 5062,
      "Ġsea": 5063,
      "Ġhelping": 5064,
      "Ġimmigration": 5065,
      "Ġfiled": 5066,
      "Ġamazing": 5067,
      "65": 5068,
      "Ġscript": 5069,
      "Ġtests": 5070,
      "erous": 5071,
      "gn": 5072,
      "Ġstanding": 5073,
      "ĠDistrict": 5074,
      "ĠEgypt": 5075,
      "Ġmarkets": 5076,
      "Ġprinc": 5077,
      "ĠWilliams": 5078,
      "Ġspeaking": 5079,
      "Ġspect": 5080,
      "Ġsides": 5081,
      "Ġtransl": 5082,
      "ĠDen": 5083,
      "Ġmut": 5084,
      "Ġ45": 5085,
      "Ġton": 5086,
      "Ġdetermine": 5087,
      "0000": 5088,
      "!\"": 5089,
      "Ġ;": 5090,
      "Ġappre": 5091,
      "aven": 5092,
      "ĠBefore": 5093,
      "ĠImages": 5094,
      "Ġneighborhood": 5095,
      "Ġturns": 5096,
      "Ġpair": 5097,
      "ĠService": 5098,
      "itect": 5099,
      "Ġunits": 5100,
      "imal": 5101,
      "Ġhate": 5102,
      "Ġ2004": 5103,
      "Is": 5104,
      "Ġcultural": 5105,
      "Ġincreasingly": 5106,
      "Ġprove": 5107,
      "ĠUSA": 5108,
      "ortion": 5109,
      "uters": 5110,
      "illa": 5111,
      "Ġherself": 5112,
      "uate": 5113,
      "ĠFederal": 5114,
      "Ġfellow": 5115,
      "Ġalternative": 5116,
      "ĠMass": 5117,
      "ĠMur": 5118,
      "with": 5119,
      "ĠAtlant": 5120,
      "ĠChief": 5121,
      "ĠFoundation": 5122,
      "ĠMem": 5123,
      "Ġimpossible": 5124,
      "stein": 5125,
      "Ġreligion": 5126,
      "Ġapart": 5127,
      "Ġlived": 5128,
      "Ġhttps": 5129,
      "Ġtwice": 5130,
      "Ġheat": 5131,
      "ĠThough": 5132,
      "Ġunivers": 5133,
      "Ġcorporate": 5134,
      "Ġarmy": 5135,
      "ĠSpr": 5136,
      "Ġpaying": 5137,
      "Ġsoldiers": 5138,
      "ĠDan": 5139,
      "Ġdevelopers": 5140,
      "ĠAri": 5141,
      "ĠWhe": 5142,
      "Ġpossibly": 5143,
      "Ġagencies": 5144,
      "Ġacadem": 5145,
      "rastructure": 5146,
      "Ġseconds": 5147,
      "Ġapplications": 5148,
      "Ġseeking": 5149,
      "icted": 5150,
      "Ġaccounts": 5151,
      "RA": 5152,
      "ĠBoston": 5153,
      "Ġbatter": 5154,
      "Ġsounds": 5155,
      "Ġhonest": 5156,
      "Ġcuts": 5157,
      "acks": 5158,
      "Ġflight": 5159,
      "Ġbalance": 5160,
      "Ġultimately": 5161,
      "Ġgar": 5162,
      "Ġarms": 5163,
      "ĠSteve": 5164,
      "Ġhumans": 5165,
      "ashed": 5166,
      "Ġchanging": 5167,
      "iser": 5168,
      "Ġhealthy": 5169,
      "Ġcapacity": 5170,
      "hicles": 5171,
      "Ġdeveloping": 5172,
      "Ġabsolutely": 5173,
      "Ġthank": 5174,
      "Ġphilos": 5175,
      "ĠFar": 5176,
      "Ġoperating": 5177,
      "ipment": 5178,
      "ano": 5179,
      "ĠTop": 5180,
      "ores": 5181,
      "Ġinvolve": 5182,
      "Ġcloser": 5183,
      "Ġlob": 5184,
      "Ġvast": 5185,
      "Ġpossibility": 5186,
      "Ġvotes": 5187,
      "ĠSign": 5188,
      "ola": 5189,
      "Ġunless": 5190,
      "Ġapparently": 5191,
      "Ġschedul": 5192,
      "Ġexpensive": 5193,
      "ĠLee": 5194,
      "Ġinternal": 5195,
      "Ġcovered": 5196,
      "Ġindeed": 5197,
      "Ġexperts": 5198,
      "ologies": 5199,
      "ĠSing": 5200,
      "ipping": 5201,
      "HL": 5202,
      "lo": 5203,
      "Ġlosing": 5204,
      "ĠFrancisco": 5205,
      "ĠSecond": 5206,
      "arks": 5207,
      "Ġuns": 5208,
      "Ġshall": 5209,
      "Ġfinish": 5210,
      "ĠFed": 5211,
      "osen": 5212,
      "ĠStill": 5213,
      "Ġregarding": 5214,
      "Ġminute": 5215,
      "Ġvision": 5216,
      "ils": 5217,
      "52": 5218,
      "Ġevening": 5219,
      "ĠMos": 5220,
      "Ġelections": 5221,
      "ĠOnly": 5222,
      "ruit": 5223,
      "Ġsitting": 5224,
      "Ġhyp": 5225,
      "ym": 5226,
      "ĠVirginia": 5227,
      "Ġguarant": 5228,
      "Ġpresented": 5229,
      "Ġglass": 5230,
      "64": 5231,
      "ĠGal": 5232,
      "Ġseat": 5233,
      "No": 5234,
      "Re": 5235,
      "coh": 5236,
      "ĠRad": 5237,
      "Ġidentify": 5238,
      "roud": 5239,
      "Ġvul": 5240,
      "enced": 5241,
      "Ġconsult": 5242,
      "ĠEach": 5243,
      "Ġtack": 5244,
      "Ġtast": 5245,
      "oving": 5246,
      "Ġintended": 5247,
      "ĠHist": 5248,
      "ĠRE": 5249,
      "Americ": 5250,
      "run": 5251,
      "ĠCarolina": 5252,
      "Ġfamous": 5253,
      "lets": 5254,
      "Ġfired": 5255,
      "ĠJes": 5256,
      "Ġerror": 5257,
      "rie": 5258,
      "look": 5259,
      "Ġtrail": 5260,
      "Ġlisten": 5261,
      "mail": 5262,
      "under": 5263,
      "ĠLat": 5264,
      "Ġadjust": 5265,
      "pet": 5266,
      "ĠProt": 5267,
      "anche": 5268,
      "ĠSum": 5269,
      "awn": 5270,
      "ĠOk": 5271,
      "Ġelim": 5272,
      "pm": 5273,
      "ĠMel": 5274,
      "related": 5275,
      "Al": 5276,
      "porary": 5277,
      "Ġfactor": 5278,
      "uster": 5279,
      "Ġpieces": 5280,
      "AA": 5281,
      "pire": 5282,
      "Ġprosecut": 5283,
      "ĠJournal": 5284,
      "Ġflow": 5285,
      "aine": 5286,
      "Ġforget": 5287,
      "Ġscr": 5288,
      "Ġunion": 5289,
      "Ġsch": 5290,
      "atures": 5291,
      "rible": 5292,
      "75": 5293,
      "Ġpil": 5294,
      "ayer": 5295,
      "Ġestimated": 5296,
      "ocol": 5297,
      "Ġpit": 5298,
      "care": 5299,
      "ĠWork": 5300,
      "Ġoccurred": 5301,
      "Ġodd": 5302,
      "Ġfif": 5303,
      "Ġinstit": 5304,
      "Ġsolar": 5305,
      "Ġoffering": 5306,
      "ĠParis": 5307,
      "uration": 5308,
      "xual": 5309,
      "ĠCath": 5310,
      "Ġfactors": 5311,
      "state": 5312,
      "ĠWhere": 5313,
      "ĠConserv": 5314,
      "Ġdeploy": 5315,
      "ĠRiver": 5316,
      "useum": 5317,
      "Ġstreets": 5318,
      "apers": 5319,
      "isher": 5320,
      "Ġcarbon": 5321,
      "alls": 5322,
      "orage": 5323,
      "Ġbroke": 5324,
      "ini": 5325,
      "Ġbroken": 5326,
      "Ġspring": 5327,
      "sen": 5328,
      "pret": 5329,
      "Ġbought": 5330,
      "Ġtrouble": 5331,
      "ĠAT": 5332,
      "Ġserver": 5333,
      "Ġrapid": 5334,
      "ĠAbout": 5335,
      "Ġsurprise": 5336,
      "ĠGuard": 5337,
      "Ġforms": 5338,
      "Ġrid": 5339,
      "Ġconvention": 5340,
      "Sh": 5341,
      "onom": 5342,
      "idden": 5343,
      "ressive": 5344,
      "ean": 5345,
      "Ġhelps": 5346,
      "53": 5347,
      "Ġspecifically": 5348,
      "IV": 5349,
      "ĠAustralian": 5350,
      "Ġtight": 5351,
      "Ġvehicles": 5352,
      "ĠRoad": 5353,
      "ĠNAS": 5354,
      "Ġgovernments": 5355,
      "Ġbringing": 5356,
      "Ġfol": 5357,
      "Ġagent": 5358,
      "ĠShow": 5359,
      "Ġtree": 5360,
      "Ġteen": 5361,
      "Ġconducted": 5362,
      "Ġstars": 5363,
      "ION": 5364,
      "Ġprepared": 5365,
      "Ġtroops": 5366,
      "Ġmethods": 5367,
      "ãĥ": 5368,
      "phas": 5369,
      "och": 5370,
      "ours": 5371,
      "oty": 5372,
      "Ġinfrastructure": 5373,
      "Ġexclus": 5374,
      "Ð¾": 5375,
      "ĠCru": 5376,
      "Ġcouncil": 5377,
      "Ġclot": 5378,
      "Ġelected": 5379,
      "Ġselling": 5380,
      "Ġ1990": 5381,
      "Ġruling": 5382,
      "Ġheav": 5383,
      "ĠHaw": 5384,
      "hand": 5385,
      "yr": 5386,
      "war": 5387,
      "For": 5388,
      "Ġfish": 5389,
      "Ġcombat": 5390,
      "Ġlocated": 5391,
      "pired": 5392,
      "ĠColor": 5393,
      "Ġproposal": 5394,
      "Ġvoted": 5395,
      "ocking": 5396,
      "Ġsymb": 5397,
      "ader": 5398,
      "terday": 5399,
      "Ġdram": 5400,
      "ENT": 5401,
      "Ġuniversity": 5402,
      "Ġhurt": 5403,
      "Ð°": 5404,
      "ĠForce": 5405,
      "Ġregime": 5406,
      "ĠHuman": 5407,
      "Ġearn": 5408,
      "ĠSpace": 5409,
      "Ġoriginally": 5410,
      "Ġshape": 5411,
      "Ġstress": 5412,
      "Ġprime": 5413,
      "DP": 5414,
      "Ġpointed": 5415,
      "ĠDirector": 5416,
      "Ġequipment": 5417,
      "Ġseasons": 5418,
      "col": 5419,
      "Ġpercentage": 5420,
      "standing": 5421,
      "ĠScience": 5422,
      "Ġbreat": 5423,
      "Ġrevenue": 5424,
      "ĠÃĹ": 5425,
      "Ġath": 5426,
      "person": 5427,
      "ĠDevelop": 5428,
      "Ġremained": 5429,
      "Ġvoting": 5430,
      "etic": 5431,
      "ĠTra": 5432,
      "Ġsector": 5433,
      "Ġweapon": 5434,
      "Ġpositions": 5435,
      "Ġfaster": 5436,
      "Ġplenty": 5437,
      "Ġchallenges": 5438,
      "Ġrefused": 5439,
      "Ġpotentially": 5440,
      "reens": 5441,
      "inating": 5442,
      "Ġequal": 5443,
      "noon": 5444,
      "Ġboost": 5445,
      "Ġsecure": 5446,
      "ĠSher": 5447,
      "Ġexpressed": 5448,
      "Ġweren": 5449,
      "ĠSupp": 5450,
      "olved": 5451,
      "Ġjail": 5452,
      "ĠIsland": 5453,
      "Ġlawyer": 5454,
      "OW": 5455,
      "Ġvir": 5456,
      "Ġrecorded": 5457,
      "ĠProject": 5458,
      "ighters": 5459,
      "Ġminimum": 5460,
      "Ġexperiment": 5461,
      "Ġprivacy": 5462,
      "Ġfra": 5463,
      "Ġaffected": 5464,
      "Ġgreatest": 5465,
      "Ġarr": 5466,
      "ĠSaud": 5467,
      "Ġrandom": 5468,
      "Ġera": 5469,
      "ĠSomet": 5470,
      "Ġargue": 5471,
      "Ġplants": 5472,
      "Ġmaster": 5473,
      "Ġretail": 5474,
      ",[": 5475,
      "Ġnar": 5476,
      "clusion": 5477,
      "Ġsale": 5478,
      "Ġfly": 5479,
      "ĠSant": 5480,
      "rier": 5481,
      "31": 5482,
      "ĠAndrew": 5483,
      "ashion": 5484,
      "Ġwearing": 5485,
      "ĠBBC": 5486,
      "Ġremove": 5487,
      "Ġcriticism": 5488,
      "ĠMaybe": 5489,
      "gment": 5490,
      "Ġchemical": 5491,
      "Ġtact": 5492,
      "Ġobviously": 5493,
      "ï¿½ï¿½": 5494,
      "Ġartist": 5495,
      "Ġnewspaper": 5496,
      "My": 5497,
      "ĠAgain": 5498,
      "ĠHol": 5499,
      "Ġdepart": 5500,
      "ĠLook": 5501,
      "Ġcas": 5502,
      "Ġgrew": 5503,
      "Ġpoliticians": 5504,
      "Ġplus": 5505,
      "mm": 5506,
      "Ġappearance": 5507,
      "Ġbrow": 5508,
      "ĠFer": 5509,
      "ĠPenn": 5510,
      "Ġ500": 5511,
      "Ġyouth": 5512,
      "that": 5513,
      "Ġtrig": 5514,
      "Ġhun": 5515,
      "Ġpackage": 5516,
      "ĠMeanwhile": 5517,
      "Ġtourn": 5518,
      "Ġast": 5519,
      "ureau": 5520,
      "Ġmagazine": 5521,
      "Ġmort": 5522,
      "Ġfilms": 5523,
      "anged": 5524,
      "Ġdetermined": 5525,
      "ĠIre": 5526,
      "Ġrent": 5527,
      "ĠMs": 5528,
      "Ġcart": 5529,
      "04": 5530,
      "cean": 5531,
      "Ġconsumers": 5532,
      "Ġrealize": 5533,
      "IP": 5534,
      "Ġclin": 5535,
      "arp": 5536,
      "Ġaccident": 5537,
      "Ġexperienced": 5538,
      "ĠAv": 5539,
      "Ġreduced": 5540,
      "Ġprospect": 5541,
      "()": 5542,
      "Ġid": 5543,
      "endment": 5544,
      "eds": 5545,
      "Ġwidely": 5546,
      "Ġconsidering": 5547,
      "Ġstret": 5548,
      "ĠHy": 5549,
      "vey": 5550,
      "Ġhandle": 5551,
      "Ġwood": 5552,
      "Ġpurchase": 5553,
      "Ġfacing": 5554,
      "Ġappreci": 5555,
      ",'": 5556,
      "ĠPower": 5557,
      "Ġedge": 5558,
      "Tr": 5559,
      "Ġpowers": 5560,
      "Ġclim": 5561,
      "Ġvulner": 5562,
      "uit": 5563,
      "asp": 5564,
      "Ġshift": 5565,
      "ĠStan": 5566,
      "issions": 5567,
      "Ġleads": 5568,
      "95": 5569,
      "Ġthr": 5570,
      "ĠJackson": 5571,
      "ĠDou": 5572,
      "Ġsignificantly": 5573,
      "ĠLabour": 5574,
      "ĠGrand": 5575,
      "Ġbound": 5576,
      "Ġpulled": 5577,
      "Ġwear": 5578,
      "oviet": 5579,
      "apping": 5580,
      "Ġyards": 5581,
      "cel": 5582,
      "ruption": 5583,
      "Ġsigns": 5584,
      "life": 5585,
      "mosp": 5586,
      "ĠWood": 5587,
      "ĠBest": 5588,
      "Ġremaining": 5589,
      "Ġcombined": 5590,
      "Ġswitch": 5591,
      "ĠDaily": 5592,
      "ĠRon": 5593,
      "rog": 5594,
      "IG": 5595,
      "road": 5596,
      "Ġargued": 5597,
      "lyn": 5598,
      "=\"": 5599,
      "mond": 5600,
      "ownt": 5601,
      "Ġproced": 5602,
      "class": 5603,
      "ller": 5604,
      "Ġends": 5605,
      "UT": 5606,
      "Ġexplos": 5607,
      "Ġapps": 5608,
      "Ġcompleted": 5609,
      "IM": 5610,
      "Ġaircraft": 5611,
      "Ġmode": 5612,
      "Ġsupporting": 5613,
      "Ġhopes": 5614,
      "ĠKim": 5615,
      "Ġcollabor": 5616,
      "ĠBus": 5617,
      "ĠBraz": 5618,
      "Ġconsumer": 5619,
      "Ġafternoon": 5620,
      "gent": 5621,
      "Ġconcent": 5622,
      "LE": 5623,
      "Ġbasically": 5624,
      "Ġsurprising": 5625,
      "ĠCharl": 5626,
      "ĠFour": 5627,
      "Ġexcited": 5628,
      "Ġ2003": 5629,
      "ss": 5630,
      "Ġtele": 5631,
      "Ġmotiv": 5632,
      "ĠPac": 5633,
      "plom": 5634,
      "ĠChristmas": 5635,
      "olit": 5636,
      "Ġdiscl": 5637,
      "Ġconstruct": 5638,
      "Ġtypically": 5639,
      "Ġemergency": 5640,
      "Ġenemy": 5641,
      "ĠIts": 5642,
      "Ġopportunities": 5643,
      "Ġopposed": 5644,
      "Ġdifferences": 5645,
      "Ġsuppl": 5646,
      "cohol": 5647,
      "Ġproceed": 5648,
      "ht": 5649,
      "tion": 5650,
      "arden": 5651,
      "Ġ2001": 5652,
      "Ġmatters": 5653,
      "Ġpages": 5654,
      "Ġtreated": 5655,
      "idel": 5656,
      "Ġtalked": 5657,
      "Ġdoctor": 5658,
      "Ġcontrast": 5659,
      "Ġ//": 5660,
      "oking": 5661,
      "ĠVict": 5662,
      "Ġbelong": 5663,
      "Ġcreation": 5664,
      "nell": 5665,
      ",âĢĻ": 5666,
      "46": 5667,
      "ffee": 5668,
      "Ġvideos": 5669,
      "apter": 5670,
      "ensions": 5671,
      "Ġpanel": 5672,
      "PR": 5673,
      "ĠDani": 5674,
      "ĠRight": 5675,
      "ĠSystem": 5676,
      "ĠSqu": 5677,
      "Ġeverybody": 5678,
      "ĠTechn": 5679,
      "Ġstruggle": 5680,
      "zer": 5681,
      "42": 5682,
      "Ġdim": 5683,
      "Ġliberal": 5684,
      "Ġquant": 5685,
      "ĠIreland": 5686,
      "Ġlots": 5687,
      "Ġsad": 5688,
      "oom": 5689,
      "Ã¤": 5690,
      "ĠThank": 5691,
      "Ġadvance": 5692,
      "Ðµ": 5693,
      "ĠNov": 5694,
      "ternal": 5695,
      "Ġvisual": 5696,
      "Ġturning": 5697,
      "Ġrenew": 5698,
      "Ġcalcul": 5699,
      "Ġec": 5700,
      "----------------": 5701,
      "Ġreference": 5702,
      "Ġbroadcast": 5703,
      "hered": 5704,
      "Ġvalid": 5705,
      "ĠLong": 5706,
      "Ġdisappoint": 5707,
      "ivered": 5708,
      "rawn": 5709,
      "ĠThanks": 5710,
      "ogue": 5711,
      "aza": 5712,
      "ĠMichigan": 5713,
      "Ġapproved": 5714,
      "Ġment": 5715,
      "sts": 5716,
      "ĠNote": 5717,
      "Ġaid": 5718,
      "Ġsubs": 5719,
      "Ġwrites": 5720,
      "ĠRev": 5721,
      "ĠTurkey": 5722,
      "Ġdistance": 5723,
      "Ġgra": 5724,
      "ompl": 5725,
      "essions": 5726,
      "osite": 5727,
      "ĠMa": 5728,
      "oken": 5729,
      "Ġsac": 5730,
      "Ġfill": 5731,
      "****": 5732,
      "Ġappeal": 5733,
      "Ġmal": 5734,
      "Ġresponded": 5735,
      "Ġattempts": 5736,
      "IR": 5737,
      "Ġdismiss": 5738,
      "oral": 5739,
      "Ġmovies": 5740,
      "Ġsem": 5741,
      "Ġelement": 5742,
      "Ġdefault": 5743,
      "Ġpassing": 5744,
      "56": 5745,
      "ket": 5746,
      "Ġhol": 5747,
      "ulations": 5748,
      "Ġzone": 5749,
      "erved": 5750,
      "abilities": 5751,
      "Ġseriously": 5752,
      "Ġtechnical": 5753,
      "Ġdenied": 5754,
      "ĠOl": 5755,
      "oves": 5756,
      "ributed": 5757,
      "Ġbodies": 5758,
      "Ġbuildings": 5759,
      "hab": 5760,
      "Ġunable": 5761,
      "ato": 5762,
      "Ġinjured": 5763,
      "Ġbatt": 5764,
      "free": 5765,
      "78": 5766,
      "urb": 5767,
      "Ġcraft": 5768,
      "Ġburn": 5769,
      "Ġnut": 5770,
      "Ġcoord": 5771,
      "lines": 5772,
      "Ġnumerous": 5773,
      "Ġreaction": 5774,
      "obe": 5775,
      "Ġoptim": 5776,
      "ĠAC": 5777,
      "ĠWeek": 5778,
      "Ġapprox": 5779,
      "Ġsatisf": 5780,
      "chen": 5781,
      "acter": 5782,
      "ĠHel": 5783,
      "ĠGen": 5784,
      "Ġexpansion": 5785,
      "],": 5786,
      "Ġdiscrim": 5787,
      "Ġordered": 5788,
      "host": 5789,
      "ĠWal": 5790,
      "ĠiPh": 5791,
      "ĠLife": 5792,
      "Ġentertain": 5793,
      "Ġreporters": 5794,
      "Ġconfidence": 5795,
      "Ġsuffered": 5796,
      "estival": 5797,
      "Ġsuit": 5798,
      "ĠRod": 5799,
      "Ġ1980": 5800,
      "respond": 5801,
      "Ġinstitutions": 5802,
      "ishes": 5803,
      "Ġreporting": 5804,
      "Ġtradition": 5805,
      "Ġcrimes": 5806,
      "PD": 5807,
      "ĠSoviet": 5808,
      "ĠScot": 5809,
      "Ġquiet": 5810,
      "Ġcustomer": 5811,
      "Ġcapable": 5812,
      "ench": 5813,
      "Ġmarried": 5814,
      "Ġmand": 5815,
      "ĠMount": 5816,
      "ĠBlue": 5817,
      "Ġexperiences": 5818,
      "Ĥ¬": 5819,
      "Ġloved": 5820,
      "Ġcloud": 5821,
      "ĠKell": 5822,
      "Ġupgr": 5823,
      "Ġaccompl": 5824,
      "Ġconfident": 5825,
      "uations": 5826,
      "ĠIll": 5827,
      "Ġdeclared": 5828,
      "unction": 5829,
      "Ġexplo": 5830,
      "##": 5831,
      "Ġperspective": 5832,
      "nergy": 5833,
      "Ġtun": 5834,
      "ĠGar": 5835,
      "Ġ36": 5836,
      "ĠJul": 5837,
      "Ġcentre": 5838,
      "Ġourselves": 5839,
      "ilty": 5840,
      "Ġconnected": 5841,
      "ampion": 5842,
      "ĠBrazil": 5843,
      "Ġpractices": 5844,
      "Ġthoughts": 5845,
      "Ġadvice": 5846,
      "Ġpictures": 5847,
      "fere": 5848,
      "aints": 5849,
      "Ġtransition": 5850,
      "orry": 5851,
      "Ġdelay": 5852,
      "ita": 5853,
      "arge": 5854,
      "ĠEnter": 5855,
      "ĠWalk": 5856,
      "ĠCNN": 5857,
      "Ġinstruct": 5858,
      "Ġadvert": 5859,
      "Ġgrab": 5860,
      "Ġprompt": 5861,
      "So": 5862,
      "Ġsets": 5863,
      "razy": 5864,
      "ĠYear": 5865,
      "top": 5866,
      "ĠSeattle": 5867,
      "Ġproud": 5868,
      "ĠCard": 5869,
      "Ġmanage": 5870,
      "ĠPrem": 5871,
      "Ġeditor": 5872,
      "ĠPolit": 5873,
      "Ġpublicly": 5874,
      "ĠThree": 5875,
      "aped": 5876,
      "isters": 5877,
      "Ġarmed": 5878,
      "Ġdebut": 5879,
      "ĠOhio": 5880,
      "Ġarchitect": 5881,
      "Ġstatements": 5882,
      "Ġongoing": 5883,
      "Ġadmitted": 5884,
      "Ġstands": 5885,
      "Ġshouldn": 5886,
      "lymp": 5887,
      "Ġeffectively": 5888,
      "Ġmessages": 5889,
      "ĠNext": 5890,
      "Ġcircumst": 5891,
      "amm": 5892,
      "Ġfaces": 5893,
      "ĠSwed": 5894,
      "ĠRomney": 5895,
      "unte": 5896,
      "Ġflood": 5897,
      "TV": 5898,
      "Ġlaugh": 5899,
      "Ġpitch": 5900,
      "ĠPR": 5901,
      "Ġsubstant": 5902,
      "Ġemails": 5903,
      "ĠVol": 5904,
      "pass": 5905,
      "Ġcooper": 5906,
      "Ġstorm": 5907,
      "rist": 5908,
      "Ġoutput": 5909,
      "Ġreportedly": 5910,
      "Ġlit": 5911,
      "ilit": 5912,
      "Ġsevere": 5913,
      "astern": 5914,
      "Ġlegit": 5915,
      "abin": 5916,
      "Ġforg": 5917,
      "gia": 5918,
      "Ġvan": 5919,
      "enture": 5920,
      "ucks": 5921,
      "dule": 5922,
      "Ġeval": 5923,
      "ĠHen": 5924,
      "ĠLin": 5925,
      "ala": 5926,
      "li": 5927,
      "Ġconfirm": 5928,
      "Ġgiant": 5929,
      "ĠAuthor": 5930,
      "ellow": 5931,
      "Ġfilled": 5932,
      "ĠShare": 5933,
      "employ": 5934,
      "ey": 5935,
      "Ġbond": 5936,
      "Ġdelivered": 5937,
      "Ġviolent": 5938,
      "adow": 5939,
      "43": 5940,
      "uthors": 5941,
      "ĠAfghanistan": 5942,
      "Ġtech": 5943,
      "ĠCarl": 5944,
      "ĠID": 5945,
      "Ġpicked": 5946,
      "Ġexplains": 5947,
      "Ġfindings": 5948,
      "ĠAut": 5949,
      "Ġgraph": 5950,
      "ache": 5951,
      "eration": 5952,
      "ÃŃ": 5953,
      "Ġgather": 5954,
      "Ġdatab": 5955,
      "Ġcontains": 5956,
      "called": 5957,
      "Ġemphas": 5958,
      "Ġinput": 5959,
      "Ġactivists": 5960,
      "onna": 5961,
      "Ġvari": 5962,
      "amental": 5963,
      "ounded": 5964,
      "Ġcaption": 5965,
      "Ġagents": 5966,
      "ionally": 5967,
      "resents": 5968,
      "rid": 5969,
      "Ġtransform": 5970,
      "ĠPerhaps": 5971,
      "ĠAD": 5972,
      "ĠEconom": 5973,
      "ĠSky": 5974,
      "ĠMuslims": 5975,
      "esh": 5976,
      "Ġdial": 5977,
      "esters": 5978,
      "Ġevolution": 5979,
      "ĠLake": 5980,
      "rd": 5981,
      "Ġroute": 5982,
      "ĠCub": 5983,
      "abled": 5984,
      "Ġcoast": 5985,
      "Ġexcell": 5986,
      "Ġbag": 5987,
      "Ġatmosp": 5988,
      "Ġwalking": 5989,
      "ĠOlymp": 5990,
      "Ġ33": 5991,
      "Ġsongs": 5992,
      "Ġguns": 5993,
      "ĠStory": 5994,
      "Ġsession": 5995,
      "Ġcauses": 5996,
      "Ġdynam": 5997,
      "Ġperman": 5998,
      "Ġdiplom": 5999,
      "Ġappropriate": 6000,
      "ĠGames": 6001,
      "orse": 6002,
      "Ġdescribe": 6003,
      "Ġcopyright": 6004,
      "asure": 6005,
      "inent": 6006,
      "Ġsecretary": 6007,
      "LS": 6008,
      "Ġgod": 6009,
      "iat": 6010,
      "ĠAff": 6011,
      "ĠBoy": 6012,
      "Ġupdates": 6013,
      "ĠSar": 6014,
      "ĠKorean": 6015,
      "Ġabandon": 6016,
      "Ġdesire": 6017,
      "illance": 6018,
      "ĠDC": 6019,
      "Ġsubsequ": 6020,
      "Ġtalent": 6021,
      "Ġtemperature": 6022,
      "mates": 6023,
      "Ġplane": 6024,
      "Ġlinked": 6025,
      "essor": 6026,
      "MA": 6027,
      "ooth": 6028,
      "Ġweather": 6029,
      "bu": 6030,
      "ĠVide": 6031,
      "ocratic": 6032,
      "Ġterrorist": 6033,
      "ĠBarack": 6034,
      "Ġprin": 6035,
      "Ġkit": 6036,
      "ĠYoung": 6037,
      "Ġthinks": 6038,
      "Ġincor": 6039,
      "Ġshop": 6040,
      "inals": 6041,
      "ĠExp": 6042,
      "Ġcann": 6043,
      "ĠFig": 6044,
      "ĠUkraine": 6045,
      "Ġdeclined": 6046,
      "Ġflag": 6047,
      "Ġreaders": 6048,
      "Ġleaves": 6049,
      "ĠDi": 6050,
      "ansas": 6051,
      "66": 6052,
      "Ġinitially": 6053,
      "rip": 6054,
      "ĠFam": 6055,
      "Ġalt": 6056,
      "ĠTO": 6057,
      "can": 6058,
      "Ġpool": 6059,
      "ĠSaudi": 6060,
      "Ġwithd": 6061,
      "Ġgovernor": 6062,
      "ĠEric": 6063,
      "edy": 6064,
      "ĠWik": 6065,
      "ĠUpd": 6066,
      "ourney": 6067,
      "angers": 6068,
      "Ġfaced": 6069,
      "ĠBoard": 6070,
      "Ġfort": 6071,
      "Ġcrack": 6072,
      "Ġfraud": 6073,
      "Ġobjects": 6074,
      "Ġrot": 6075,
      "Ġlie": 6076,
      "Ġexamples": 6077,
      "hew": 6078,
      "Ġhell": 6079,
      "ĠElect": 6080,
      "Ġnations": 6081,
      "Ġperformed": 6082,
      "ĠBat": 6083,
      "Ġdepth": 6084,
      "Ġbull": 6085,
      "Ġmissed": 6086,
      "Ġfranch": 6087,
      "enda": 6088,
      "Ġsam": 6089,
      "Ġwarm": 6090,
      "Ġneither": 6091,
      "Ġcreative": 6092,
      "word": 6093,
      "itors": 6094,
      "Ġradical": 6095,
      "arters": 6096,
      "ĠTal": 6097,
      "usal": 6098,
      "Ġchart": 6099,
      "Ġspons": 6100,
      "ĠColumb": 6101,
      "gs": 6102,
      "Ġapplied": 6103,
      "long": 6104,
      "Ġcurrency": 6105,
      "ĠTake": 6106,
      "Ġexplan": 6107,
      "59": 6108,
      "ĠHome": 6109,
      "agers": 6110,
      "Ġ37": 6111,
      "Ġskill": 6112,
      "duc": 6113,
      "Ġbare": 6114,
      "Ġaccepted": 6115,
      "Ġpra": 6116,
      "ĠFurther": 6117,
      "ĠAnn": 6118,
      "Ġrepresents": 6119,
      "rich": 6120,
      "ĠFil": 6121,
      "Ġclient": 6122,
      "Ġinvestors": 6123,
      "Ġmouth": 6124,
      "Ġnearby": 6125,
      "Ġphen": 6126,
      "Ġresolution": 6127,
      "icing": 6128,
      "54": 6129,
      "orders": 6130,
      "Ġlibrary": 6131,
      "ador": 6132,
      "Ġpatient": 6133,
      "Ġdiscover": 6134,
      "Ġmaterials": 6135,
      "Ġannouncement": 6136,
      "ĠGM": 6137,
      "ĠReal": 6138,
      "ĠCop": 6139,
      "esc": 6140,
      "Ġcombination": 6141,
      "Ġessentially": 6142,
      "ĠInf": 6143,
      "Ġexistence": 6144,
      "Ġisland": 6145,
      "Ġremark": 6146,
      "Ġrestaurant": 6147,
      "uls": 6148,
      "Ġmir": 6149,
      "Ġsuc": 6150,
      "Ġsister": 6151,
      "Ġsought": 6152,
      "cons": 6153,
      "Ġincreases": 6154,
      "Ġexercise": 6155,
      "LA": 6156,
      "II": 6157,
      "Ġtotally": 6158,
      "illy": 6159,
      "Ġguilty": 6160,
      "Ġmyster": 6161,
      "Ġlisted": 6162,
      "ĠAriz": 6163,
      "Ġdemocracy": 6164,
      "Ġinterpret": 6165,
      "Ġdistribution": 6166,
      "Ġaf": 6167,
      "Ġ38": 6168,
      "ĠWay": 6169,
      "Ġstood": 6170,
      "Ġstorage": 6171,
      "ĠRights": 6172,
      "ĠEll": 6173,
      "Ġhotel": 6174,
      "Ġconsequences": 6175,
      "Ġlabel": 6176,
      "ĠStephen": 6177,
      "Ġstring": 6178,
      "Ġnecessarily": 6179,
      "irds": 6180,
      "OD": 6181,
      "ĠCy": 6182,
      "Ġjoint": 6183,
      "mitted": 6184,
      "Ġbon": 6185,
      "Ġmotor": 6186,
      "law": 6187,
      "Ġdecre": 6188,
      "Ġpu": 6189,
      "ĠRet": 6190,
      "Con": 6191,
      "xy": 6192,
      "stood": 6193,
      "Ġpure": 6194,
      "Ġfacts": 6195,
      "greg": 6196,
      "whel": 6197,
      "Ġfollows": 6198,
      "Ġwarned": 6199,
      "Ġinjuries": 6200,
      "Ġrein": 6201,
      "Ġ300": 6202,
      "Ġadds": 6203,
      "ĠDavis": 6204,
      "born": 6205,
      "Ġscheduled": 6206,
      "ĠDie": 6207,
      "Ġbegins": 6208,
      "Ġallegations": 6209,
      "Ġdiscussed": 6210,
      "Ġrain": 6211,
      "Ġclasses": 6212,
      "ena": 6213,
      "ette": 6214,
      "Ġdiss": 6215,
      "otic": 6216,
      "Ġyesterday": 6217,
      "ĠOld": 6218,
      "west": 6219,
      "Ġbehavi": 6220,
      "ĠDiv": 6221,
      "Ġrising": 6222,
      "ship": 6223,
      "Ġparliament": 6224,
      "Ġroughly": 6225,
      "Ġflu": 6226,
      "Ġteacher": 6227,
      "hetic": 6228,
      "Ġmoral": 6229,
      "SS": 6230,
      "oked": 6231,
      "Ġing": 6232,
      "Ġsouthern": 6233,
      "Ġsuddenly": 6234,
      "Ġenh": 6235,
      "Ġshots": 6236,
      "ĠHou": 6237,
      "ĠView": 6238,
      "Ġadvanced": 6239,
      "ERS": 6240,
      "Ġentered": 6241,
      "Ġprohib": 6242,
      "Ġske": 6243,
      "ii": 6244,
      "Ġfairly": 6245,
      "Ġresident": 6246,
      "Ġplot": 6247,
      "Ġwarning": 6248,
      "Ġrecognize": 6249,
      "Ġyounger": 6250,
      "Ġsurprised": 6251,
      "58": 6252,
      "uous": 6253,
      "Ġscored": 6254,
      "Ġlawsuit": 6255,
      "Ġmetal": 6256,
      "Ġmoves": 6257,
      "ĠContin": 6258,
      "water": 6259,
      "TS": 6260,
      "ician": 6261,
      "acle": 6262,
      "ĠChild": 6263,
      "nic": 6264,
      "Ã³": 6265,
      "Ġsnow": 6266,
      "Ġnetworks": 6267,
      "Ġsav": 6268,
      "ĠClub": 6269,
      "rate": 6270,
      "Ġsucceed": 6271,
      "oma": 6272,
      "Ġbrings": 6273,
      "ĠKevin": 6274,
      "sembly": 6275,
      "rum": 6276,
      "ĠiPhone": 6277,
      "Ġride": 6278,
      "ĠMic": 6279,
      "Tube": 6280,
      "gas": 6281,
      "Ġ2002": 6282,
      "Ġmanufacture": 6283,
      "ĠISIS": 6284,
      "Ġwest": 6285,
      "ĠEnergy": 6286,
      "41": 6287,
      "ĠLib": 6288,
      "Ġtom": 6289,
      "ywood": 6290,
      "Ġsquare": 6291,
      "irty": 6292,
      "Ġconsistent": 6293,
      "ĠSociety": 6294,
      "Ġdiet": 6295,
      "Ġintention": 6296,
      "Ġassume": 6297,
      "olve": 6298,
      "Ġindustrial": 6299,
      "Ġpushed": 6300,
      "Ġdrivers": 6301,
      "ĠDu": 6302,
      "Ġresc": 6303,
      "Ġrail": 6304,
      "Ġped": 6305,
      "ĠItal": 6306,
      "ĠAsia": 6307,
      "Ġbuying": 6308,
      "Ġfunctions": 6309,
      "Ġessential": 6310,
      "Ġreturns": 6311,
      "Ġsyn": 6312,
      "Ġbright": 6313,
      "Ġcorrespond": 6314,
      "Ġquarterback": 6315,
      "Ġalcohol": 6316,
      "esome": 6317,
      "Ġimproved": 6318,
      "ĠMen": 6319,
      "Ġsplit": 6320,
      "ĠJews": 6321,
      "ĠPS": 6322,
      "ĠWild": 6323,
      "Ġstores": 6324,
      "ĠWilson": 6325,
      "Ġboys": 6326,
      "PU": 6327,
      "Ġheads": 6328,
      "Ġimportance": 6329,
      "Ġtow": 6330,
      "athan": 6331,
      "ĠMot": 6332,
      "cho": 6333,
      "level": 6334,
      "fire": 6335,
      "Ġentry": 6336,
      "TA": 6337,
      "roit": 6338,
      "ĠDNA": 6339,
      "Ġsuffering": 6340,
      "ĠDefense": 6341,
      "Ġlinks": 6342,
      "Ġeast": 6343,
      "Ġarticles": 6344,
      "burg": 6345,
      "Ġhat": 6346,
      "Ġliqu": 6347,
      "Ġheavily": 6348,
      "bar": 6349,
      "Ġsomewhat": 6350,
      "Ġdeaths": 6351,
      "Ġhoping": 6352,
      "dis": 6353,
      "kel": 6354,
      "Ġ48": 6355,
      "Ġunlikely": 6356,
      "Ġcolleagues": 6357,
      "Ġboss": 6358,
      "Ġanywhere": 6359,
      "ĠNBA": 6360,
      "Ġrelevant": 6361,
      "ĠBrook": 6362,
      "Ġcere": 6363,
      "Ġconfig": 6364,
      "Ġhardware": 6365,
      "Ġclassic": 6366,
      "ĠSpecial": 6367,
      "fortunately": 6368,
      "ĠInvest": 6369,
      "Le": 6370,
      "ĠWin": 6371,
      "Ġflo": 6372,
      "Ġreplaced": 6373,
      "Ġbutton": 6374,
      "Ã¼": 6375,
      "ĠLand": 6376,
      "Ġnav": 6377,
      "Ġempt": 6378,
      "ĠCast": 6379,
      "ĠAh": 6380,
      "Ġgrown": 6381,
      "Ġcontest": 6382,
      "Ġmine": 6383,
      "iques": 6384,
      "Ġhighlight": 6385,
      "Ġoffense": 6386,
      "ĠBrad": 6387,
      "Ġthreats": 6388,
      "Ġvice": 6389,
      "Ġmarketing": 6390,
      "erate": 6391,
      "Ġconfront": 6392,
      "Ġrow": 6393,
      "Ġwaste": 6394,
      "ĠCharles": 6395,
      "ĠGra": 6396,
      "ĠLord": 6397,
      "ĠMat": 6398,
      "ĠStand": 6399,
      "Ġallegedly": 6400,
      "edia": 6401,
      "ensus": 6402,
      "Ġphilosop": 6403,
      "Ġopposite": 6404,
      "ĠWomen": 6405,
      "Ġemployee": 6406,
      "Ġdoctors": 6407,
      "Ġshif": 6408,
      "Ġtargets": 6409,
      "umber": 6410,
      "ĠJava": 6411,
      "Ġcheap": 6412,
      "Ġholds": 6413,
      "ĠDaniel": 6414,
      "Ġblow": 6415,
      "Ġpromise": 6416,
      "Ġreceiving": 6417,
      "ĠVan": 6418,
      "erry": 6419,
      "Ġrum": 6420,
      "ĠRam": 6421,
      "ĠPy": 6422,
      "Ġexperim": 6423,
      "erves": 6424,
      "ĠFinally": 6425,
      "bel": 6426,
      "Ġmechanism": 6427,
      "ĠDam": 6428,
      "Ġfacility": 6429,
      "luding": 6430,
      "ĠPalestinian": 6431,
      "Ġregulations": 6432,
      "atell": 6433,
      "Ġreveal": 6434,
      "ican": 6435,
      "Ġhistorical": 6436,
      "hus": 6437,
      "Ġnative": 6438,
      "ellect": 6439,
      "style": 6440,
      "ads": 6441,
      "Ġfewer": 6442,
      "Ġexpression": 6443,
      "Ġdivision": 6444,
      "Ġsees": 6445,
      "ĠArizona": 6446,
      "po": 6447,
      "Ġfavour": 6448,
      "Ġsick": 6449,
      "Ġacts": 6450,
      "ĠWars": 6451,
      "ĠNASA": 6452,
      "isting": 6453,
      "ĠSk": 6454,
      "Ġartists": 6455,
      "ĠColorado": 6456,
      "Ġmoments": 6457,
      "Ġversions": 6458,
      "inations": 6459,
      "Ġdownt": 6460,
      "avor": 6461,
      "pan": 6462,
      "ĪĴ": 6463,
      "Ġtrick": 6464,
      "ether": 6465,
      "name": 6466,
      "Ġselection": 6467,
      "iner": 6468,
      "ĠYouTube": 6469,
      "ĠTit": 6470,
      "Ġimmediate": 6471,
      "Ġbike": 6472,
      "Ġsharing": 6473,
      "utch": 6474,
      "mes": 6475,
      "Ġwave": 6476,
      "Ġcampus": 6477,
      "ta": 6478,
      "alty": 6479,
      "Ġmotion": 6480,
      "Ġprotests": 6481,
      "Ġfeatured": 6482,
      "IF": 6483,
      "friend": 6484,
      "Ã¶": 6485,
      "Ġunus": 6486,
      "Ġdefined": 6487,
      "ĠSports": 6488,
      "Ġplayoff": 6489,
      "Ġefficient": 6490,
      "Ġuniverse": 6491,
      "Ġfundamental": 6492,
      "ĠPutin": 6493,
      "Ġfashion": 6494,
      "icious": 6495,
      "Ġauthors": 6496,
      "Ġextent": 6497,
      "Ġtiny": 6498,
      "abb": 6499,
      "certain": 6500,
      "Ġsomebody": 6501,
      "iger": 6502,
      "ologist": 6503,
      "power": 6504,
      "Ġintent": 6505,
      "uated": 6506,
      "ĠCIA": 6507,
      "Ġdetailed": 6508,
      "Ġacknowled": 6509,
      "Ġathlet": 6510,
      "Ġlock": 6511,
      "Ġmanner": 6512,
      "Ġcycle": 6513,
      "68": 6514,
      "Ġisol": 6515,
      "Ġpip": 6516,
      "Ġteachers": 6517,
      "ĠHouston": 6518,
      "ĠCamer": 6519,
      "Ġsymbol": 6520,
      "Ġsym": 6521,
      "Ġassets": 6522,
      "Ġadults": 6523,
      "Ġbreaking": 6524,
      "Ġpled": 6525,
      "ĠValley": 6526,
      "ĠCatholic": 6527,
      "ulous": 6528,
      "Ġinspired": 6529,
      "Ġvolunte": 6530,
      "ĠMu": 6531,
      "Ġorders": 6532,
      "andal": 6533,
      "Ġregional": 6534,
      "ĠEnd": 6535,
      "Ġserving": 6536,
      "Ġcircumstances": 6537,
      "Ġchain": 6538,
      "Ġattempted": 6539,
      "Ġ1970": 6540,
      "ĠCheck": 6541,
      "Ġsurveillance": 6542,
      "Ġwinter": 6543,
      "inem": 6544,
      "ĠMax": 6545,
      "Ġharder": 6546,
      "ockey": 6547,
      "ĠPan": 6548,
      "Ġopponent": 6549,
      "Ġcausing": 6550,
      "ĠBell": 6551,
      "Ġembr": 6552,
      "Ġcert": 6553,
      "Ġtermin": 6554,
      "Ġcommitment": 6555,
      "Ġfrequently": 6556,
      "ml": 6557,
      "Ġacting": 6558,
      "Ġdedicated": 6559,
      "foot": 6560,
      "Ġhousehold": 6561,
      "Ġstrange": 6562,
      "Ġkinds": 6563,
      "Ġsuicide": 6564,
      "Ġdu": 6565,
      "apse": 6566,
      "Ġ34": 6567,
      "Ġhur": 6568,
      "awa": 6569,
      "Ġflat": 6570,
      "Ġhall": 6571,
      "otal": 6572,
      "Ġschedule": 6573,
      "rated": 6574,
      "Ġtournament": 6575,
      "ĠRog": 6576,
      "utral": 6577,
      "rome": 6578,
      "Ġreferred": 6579,
      "Ġformed": 6580,
      "comm": 6581,
      "Ġexcellent": 6582,
      "Ġegg": 6583,
      "ĠPen": 6584,
      "Ġpregn": 6585,
      "rison": 6586,
      "Ġwalked": 6587,
      "Ġposts": 6588,
      "adel": 6589,
      "Ġemotional": 6590,
      "ocket": 6591,
      "game": 6592,
      "Ġschol": 6593,
      "boy": 6594,
      "ĠFord": 6595,
      "Ġexhib": 6596,
      "ĠIns": 6597,
      "Ġsentence": 6598,
      "Ġcarrying": 6599,
      "Ġpushing": 6600,
      "Ġparticipants": 6601,
      "Ġupcoming": 6602,
      "anges": 6603,
      "Ġcrash": 6604,
      "Ġ49": 6605,
      "rive": 6606,
      "ĠJord": 6607,
      "Ġcrazy": 6608,
      "Ġmeat": 6609,
      "ĠClass": 6610,
      "Ġzero": 6611,
      "Ġancient": 6612,
      "ĠBas": 6613,
      "Ġrape": 6614,
      "Ġclosely": 6615,
      "ĠLove": 6616,
      "Ġcommunication": 6617,
      "Ġdecline": 6618,
      "Ġearned": 6619,
      "ĠAgency": 6620,
      "Ġrealized": 6621,
      "ĠDetroit": 6622,
      "Ġusual": 6623,
      "chers": 6624,
      "Ġrepeatedly": 6625,
      "Ġdealing": 6626,
      "Ġnorthern": 6627,
      "ĠNight": 6628,
      "Ġinstru": 6629,
      "Ġcomfortable": 6630,
      "itar": 6631,
      "ulture": 6632,
      "Ġrally": 6633,
      "ĠWater": 6634,
      "lv": 6635,
      "',": 6636,
      "Ġterrorism": 6637,
      "ĠDark": 6638,
      "Get": 6639,
      "stone": 6640,
      "ĠReport": 6641,
      "Ġalongside": 6642,
      "Ġowned": 6643,
      "Ġtargeted": 6644,
      "ora": 6645,
      "Ġdeeply": 6646,
      "anish": 6647,
      "ĠWat": 6648,
      "ĠArch": 6649,
      "iveness": 6650,
      "Ġupdated": 6651,
      "Ġstruck": 6652,
      "Ar": 6653,
      "ĠNetwork": 6654,
      "ĠKey": 6655,
      "Ġwins": 6656,
      "ĠOrgan": 6657,
      "Ġstudio": 6658,
      "ĠAdam": 6659,
      "Ġsand": 6660,
      "Ġbat": 6661,
      "ĠNY": 6662,
      "Ġcontroversial": 6663,
      "Ġproperties": 6664,
      "Ġobserv": 6665,
      "nam": 6666,
      "Ġoverwhel": 6667,
      "Ġdestroyed": 6668,
      "uable": 6669,
      ".\"[": 6670,
      "ĠMiller": 6671,
      "Ġprecise": 6672,
      "azi": 6673,
      "def": 6674,
      "05": 6675,
      "ĠTay": 6676,
      "Ġreput": 6677,
      "Ġlies": 6678,
      "FP": 6679,
      "Ġchairman": 6680,
      "icer": 6681,
      "Ġwire": 6682,
      "Ġcompetitive": 6683,
      "ceived": 6684,
      "Ġpassion": 6685,
      "Ġsho": 6686,
      "ĠSteven": 6687,
      "ĠAttorney": 6688,
      "Ġabortion": 6689,
      "ĠItaly": 6690,
      "Ġvolume": 6691,
      "ĠAmong": 6692,
      "ĠCruz": 6693,
      "ĠOF": 6694,
      "Ġok": 6695,
      "Ġstim": 6696,
      "Ġshel": 6697,
      "Ġwake": 6698,
      "ĠHot": 6699,
      "Ġsigning": 6700,
      "New": 6701,
      "rors": 6702,
      "Ġagenda": 6703,
      "Ġpromised": 6704,
      "ĠAdminist": 6705,
      "agan": 6706,
      "Ġjourney": 6707,
      "Ġrisks": 6708,
      "Ġwatched": 6709,
      "weight": 6710,
      "Cl": 6711,
      "Ġdomin": 6712,
      "sters": 6713,
      "Ġapproval": 6714,
      "Ġcolon": 6715,
      "Ġmainstream": 6716,
      "iciency": 6717,
      "She": 6718,
      "Ġbasket": 6719,
      "Ġguide": 6720,
      "OC": 6721,
      "Ġreward": 6722,
      "Ġslowly": 6723,
      "Ġliterally": 6724,
      "gor": 6725,
      "Ġwelcome": 6726,
      "Ġrelationships": 6727,
      "ĠCat": 6728,
      "Ġsurrounding": 6729,
      "ĠBru": 6730,
      "ĠJr": 6731,
      "iami": 6732,
      "Ġphenomen": 6733,
      "Ġcolumn": 6734,
      "gery": 6735,
      "Ġgang": 6736,
      "Ġnewslet": 6737,
      "Ġinfl": 6738,
      "ĠCare": 6739,
      "Ġknowing": 6740,
      "Ġsubsid": 6741,
      "ĠBalt": 6742,
      "Ġcongress": 6743,
      "alle": 6744,
      "ĠJesus": 6745,
      "ĠSC": 6746,
      "Ġrequirements": 6747,
      "ĠThus": 6748,
      "ĠSuch": 6749,
      "ĠHollywood": 6750,
      "Ġexplore": 6751,
      "âĢĶâĢĶâĢĶâĢĶ": 6752,
      "ĠDar": 6753,
      "Ġcup": 6754,
      "Ġwestern": 6755,
      "Ġgap": 6756,
      "Ġlocations": 6757,
      "ographic": 6758,
      "Ġretire": 6759,
      "ORE": 6760,
      "Ġanyway": 6761,
      "Ġadapt": 6762,
      "ĠBusiness": 6763,
      "Ġfasc": 6764,
      "Ġsample": 6765,
      "Ġforth": 6766,
      "allas": 6767,
      "Ġtort": 6768,
      "Ġnomine": 6769,
      "Ġconver": 6770,
      "Ġrub": 6771,
      "ĠTest": 6772,
      "Ġcoffee": 6773,
      "Ġpal": 6774,
      "post": 6775,
      "twitter": 6776,
      "ĠDun": 6777,
      "wan": 6778,
      "ĠCD": 6779,
      "Ġresistance": 6780,
      "Ġsky": 6781,
      "Ġsimpl": 6782,
      "ums": 6783,
      "Ġarguments": 6784,
      "ĠWhich": 6785,
      "Ġtypical": 6786,
      "Ġterritory": 6787,
      "Ġproperly": 6788,
      "inson": 6789,
      "Ġapproximately": 6790,
      "Ġworried": 6791,
      "Ġurban": 6792,
      "Ġopponents": 6793,
      "oration": 6794,
      "acc": 6795,
      "ixt": 6796,
      "Ġtested": 6797,
      "ĠTurk": 6798,
      "ĠMajor": 6799,
      "Ġnoticed": 6800,
      "Ġobserved": 6801,
      "ĠJosh": 6802,
      "American": 6803,
      "88": 6804,
      "ĠDid": 6805,
      "Ġbitcoin": 6806,
      "Ġring": 6807,
      "rence": 6808,
      "Ġmaximum": 6809,
      "ugh": 6810,
      "iform": 6811,
      "ĠGeorgia": 6812,
      "onymous": 6813,
      "Ġeating": 6814,
      "sex": 6815,
      "Ġaside": 6816,
      "Ġimpressive": 6817,
      "51": 6818,
      "GBT": 6819,
      "How": 6820,
      "gender": 6821,
      "Ġsustain": 6822,
      "Ġtopic": 6823,
      "Ġstream": 6824,
      "Ġimmigrants": 6825,
      "ĠSP": 6826,
      "va": 6827,
      "sole": 6828,
      "ilding": 6829,
      "Ġlatter": 6830,
      "dit": 6831,
      "Ġsending": 6832,
      "09": 6833,
      "Ġdry": 6834,
      "Ġblame": 6835,
      "ĠBrian": 6836,
      "Ġattacked": 6837,
      "Ġchannel": 6838,
      "Ġrequests": 6839,
      "ĠCivil": 6840,
      "Ġlicense": 6841,
      "ati": 6842,
      "Ġalive": 6843,
      "Ġprotected": 6844,
      "ĠNE": 6845,
      "ĠOrig": 6846,
      "Ġoblig": 6847,
      "Ġexciting": 6848,
      "ĠNations": 6849,
      "ĠConf": 6850,
      "Ġfranchise": 6851,
      "ĠLight": 6852,
      "Ġinvolving": 6853,
      "ĠForeign": 6854,
      "dro": 6855,
      "ĠNever": 6856,
      "ĠSea": 6857,
      "ĠVictor": 6858,
      "Ġwage": 6859,
      "Ġvirtual": 6860,
      "ua": 6861,
      "Ġselected": 6862,
      "Ġmistake": 6863,
      "ni": 6864,
      "Ġdesk": 6865,
      "anes": 6866,
      "ĠLew": 6867,
      "Ġarray": 6868,
      "Ġprote": 6869,
      "Ġunemploy": 6870,
      "Ġremote": 6871,
      "Ġunknown": 6872,
      "Ġextended": 6873,
      "ĠOper": 6874,
      "Ġfixed": 6875,
      "Ġhonor": 6876,
      "ensity": 6877,
      "Ġdefeat": 6878,
      "To": 6879,
      "Ġanx": 6880,
      "Ġsupports": 6881,
      "ĠIrish": 6882,
      "Ġphase": 6883,
      "Ġmedic": 6884,
      "mission": 6885,
      "Ġobtained": 6886,
      "ĠIndeed": 6887,
      "Ġmerely": 6888,
      "Bl": 6889,
      "Ġconstant": 6890,
      "itarian": 6891,
      "asks": 6892,
      "Ġlikes": 6893,
      "ĠCam": 6894,
      "ĠId": 6895,
      "ĠSpanish": 6896,
      "Ġcomparison": 6897,
      "izz": 6898,
      "Ġbrew": 6899,
      "77": 6900,
      "ĠIP": 6901,
      "Ġbattery": 6902,
      "phy": 6903,
      "Ġking": 6904,
      "ĠScotland": 6905,
      "ĠEduc": 6906,
      "ĠHun": 6907,
      "Ġunderstood": 6908,
      "omin": 6909,
      "ĠSouthern": 6910,
      "Ġsomehow": 6911,
      "Ġthread": 6912,
      "ĠMiami": 6913,
      "Ġfees": 6914,
      "Ġfolks": 6915,
      "ĠEp": 6916,
      "ĠFort": 6917,
      "ĠVis": 6918,
      "Ġamounts": 6919,
      "Ġstrongly": 6920,
      "Ġconscious": 6921,
      "ko": 6922,
      "ĠDig": 6923,
      "Ġtheme": 6924,
      "ĠTurn": 6925,
      "Ġputs": 6926,
      "Ġdiagn": 6927,
      "ĠJordan": 6928,
      "</": 6929,
      "Ġnarrow": 6930,
      "Ġregions": 6931,
      "Ġdeals": 6932,
      "ĠUnfortunately": 6933,
      "Ġpersonally": 6934,
      "Ġdatabase": 6935,
      "Ġfuck": 6936,
      "Ġdrag": 6937,
      "woman": 6938,
      "Ġsoul": 6939,
      "ĠKn": 6940,
      "tle": 6941,
      "ayers": 6942,
      "Ġchose": 6943,
      "Ġfacilities": 6944,
      "ipl": 6945,
      "aze": 6946,
      "aug": 6947,
      "Ġworker": 6948,
      "redit": 6949,
      "Ġlimits": 6950,
      "Ġaspects": 6951,
      "Ġimper": 6952,
      "Ġwid": 6953,
      "you": 6954,
      "Ġdisag": 6955,
      "Ġsole": 6956,
      "Ġsomewhere": 6957,
      "emen": 6958,
      "Ġpromote": 6959,
      "Ġdogs": 6960,
      "Ġheight": 6961,
      "Ġescape": 6962,
      "owered": 6963,
      "Ġpaint": 6964,
      "pool": 6965,
      "ĠProgram": 6966,
      "ao": 6967,
      "Ġallies": 6968,
      "celer": 6969,
      "asts": 6970,
      "Ġthousand": 6971,
      "Ġvillage": 6972,
      "ĠHas": 6973,
      "raid": 6974,
      "ĠLabor": 6975,
      "Ġmatches": 6976,
      "ĠCompany": 6977,
      "ĠScient": 6978,
      "Ġpurs": 6979,
      "ĠNick": 6980,
      "Ġdeck": 6981,
      "Ġnarr": 6982,
      "Ġhits": 6983,
      "Ġretain": 6984,
      "Ġrefugees": 6985,
      "Ġdirected": 6986,
      "All": 6987,
      "Ġbunch": 6988,
      "Ġfemin": 6989,
      "UR": 6990,
      "aser": 6991,
      "Ġprofit": 6992,
      "Ġinqu": 6993,
      "ĠClick": 6994,
      "oming": 6995,
      "Ġsquad": 6996,
      "Ġfighters": 6997,
      "obile": 6998,
      "Ġfalling": 6999,
      "Ġtrees": 7000,
      "igation": 7001,
      "Ġunw": 7002,
      "Ġsignal": 7003,
      "ĠMoore": 7004,
      "Ġdress": 7005,
      "::": 7006,
      "Ġpurposes": 7007,
      "ĠTony": 7008,
      "Ġscheme": 7009,
      "Ġcutting": 7010,
      "Ġruled": 7011,
      "Ġjournalists": 7012,
      "Ġcontrolled": 7013,
      "ĠGi": 7014,
      "ivalent": 7015,
      "axy": 7016,
      "cers": 7017,
      "Ġencourage": 7018,
      "otten": 7019,
      "ĠAR": 7020,
      "Ġcritics": 7021,
      "alo": 7022,
      "Ġdinner": 7023,
      "Ġemissions": 7024,
      "asters": 7025,
      "ĠCH": 7026,
      "DS": 7027,
      "Ġtransp": 7028,
      "ĠJersey": 7029,
      "Ġending": 7030,
      "Ġpunish": 7031,
      "08": 7032,
      "Ġintellect": 7033,
      "pes": 7034,
      "Ġstronger": 7035,
      "verty": 7036,
      "Ġvacc": 7037,
      "Ġcaptured": 7038,
      "%)": 7039,
      "Pro": 7040,
      "Ġproof": 7041,
      "ĠStart": 7042,
      "Ġempty": 7043,
      "ĠSenator": 7044,
      "Ġcommunications": 7045,
      "Ġmixed": 7046,
      "Ġindicate": 7047,
      "Ġflex": 7048,
      "ĠCross": 7049,
      "Ġgotten": 7050,
      "enger": 7051,
      "Ġpoverty": 7052,
      "Ġgoods": 7053,
      "Ġparam": 7054,
      "Ġdefinition": 7055,
      "ĠColl": 7056,
      "Ġexposed": 7057,
      "Ġfeedback": 7058,
      "Ġformat": 7059,
      "Ġanswers": 7060,
      "Ġchampion": 7061,
      "Ġ75": 7062,
      "Ġwinner": 7063,
      "han": 7064,
      "ĠThrough": 7065,
      "Ġmeetings": 7066,
      "Ġcourts": 7067,
      "Ġpolls": 7068,
      "06": 7069,
      "NC": 7070,
      "Ġwal": 7071,
      "Ġconstit": 7072,
      "07": 7073,
      "ocation": 7074,
      "Ġcategory": 7075,
      "Ġbid": 7076,
      "star": 7077,
      "Ġble": 7078,
      "98": 7079,
      "Ġextensive": 7080,
      "Ġprotesters": 7081,
      "Ġideal": 7082,
      "Ġexists": 7083,
      "Ġtrading": 7084,
      "Ġengage": 7085,
      "edd": 7086,
      "oric": 7087,
      "ĠHard": 7088,
      "ĠDallas": 7089,
      "ĠItalian": 7090,
      "ĠIT": 7091,
      "âĢĻ.": 7092,
      "ĠAsian": 7093,
      "Ġsolutions": 7094,
      "Ġreasonable": 7095,
      "Ġhouses": 7096,
      "Ġclaiming": 7097,
      "Ð¸": 7098,
      "ĠLo": 7099,
      "acking": 7100,
      "Ġdeveloper": 7101,
      "Ġprimarily": 7102,
      "Ġdollar": 7103,
      "Ġdrawn": 7104,
      "ĠAcadem": 7105,
      "ĠHistory": 7106,
      "Ġcontributed": 7107,
      "Ġfinds": 7108,
      "vy": 7109,
      "Ġoutcome": 7110,
      "Ġenemies": 7111,
      "Ġemployment": 7112,
      "Ġsituations": 7113,
      "Ġfifth": 7114,
      "Äĥ": 7115,
      "ĠKent": 7116,
      "zens": 7117,
      "ĠCall": 7118,
      "Ġdriven": 7119,
      "Ġcondem": 7120,
      "Ġbear": 7121,
      "Ġdeleg": 7122,
      "car": 7123,
      "Ġatmosphere": 7124,
      "ciples": 7125,
      "unning": 7126,
      "ĠMS": 7127,
      "ĠFoot": 7128,
      "Ġplug": 7129,
      "owed": 7130,
      "Ġfold": 7131,
      "Ġseats": 7132,
      "Ġdemands": 7133,
      "rary": 7134,
      "Ġgenerate": 7135,
      "chain": 7136,
      "CS": 7137,
      "On": 7138,
      "Ġdesper": 7139,
      "isan": 7140,
      "Ġplastic": 7141,
      "ĠNHL": 7142,
      "iscons": 7143,
      "intend": 7144,
      "pected": 7145,
      "Ġstretch": 7146,
      "ĠNation": 7147,
      "Ġmurd": 7148,
      "Ġcontem": 7149,
      "Ġapartment": 7150,
      "isconsin": 7151,
      "ĠLive": 7152,
      "anchester": 7153,
      "Ġletters": 7154,
      "Ġmachines": 7155,
      "Ġ00": 7156,
      "abis": 7157,
      "Ġcomponents": 7158,
      "Ġtruck": 7159,
      "Ġcoalition": 7160,
      "Ġties": 7161,
      "Ġenthus": 7162,
      "Ġofficially": 7163,
      "Ġclar": 7164,
      "Ġticket": 7165,
      "Ġbench": 7166,
      "ĠTem": 7167,
      "Ġchoices": 7168,
      "Ġdrinking": 7169,
      "ĠJudge": 7170,
      "ĠMake": 7171,
      "Ġchosen": 7172,
      "enders": 7173,
      "ĠNBC": 7174,
      "ĠFull": 7175,
      "Ġpic": 7176,
      "Ġelectricity": 7177,
      "otes": 7178,
      "ĠPay": 7179,
      "Ġresulting": 7180,
      "adelph": 7181,
      "ĠSource": 7182,
      "Ġtechnologies": 7183,
      "VER": 7184,
      "oster": 7185,
      "Ġven": 7186,
      "ogan": 7187,
      "Ġwriters": 7188,
      "Ġblocks": 7189,
      "sm": 7190,
      "Ġrejected": 7191,
      "ĠSever": 7192,
      "Ġharass": 7193,
      "ĠAL": 7194,
      "ĠUt": 7195,
      "ez": 7196,
      "Ġincredibly": 7197,
      "Ġconstantly": 7198,
      "ems": 7199,
      "Ġthreatened": 7200,
      "rehens": 7201,
      "Ġru": 7202,
      "ĠHave": 7203,
      "inity": 7204,
      "Ġfounder": 7205,
      "anny": 7206,
      "Ġencoun": 7207,
      "ĠCome": 7208,
      "Ġprofile": 7209,
      "ĠFund": 7210,
      "she": 7211,
      "essed": 7212,
      "Ġcomprom": 7213,
      "Ġelsewhere": 7214,
      "Ġfields": 7215,
      "ĠFred": 7216,
      "Ġdecent": 7217,
      "ĠAnth": 7218,
      "fast": 7219,
      "Ġpin": 7220,
      "rett": 7221,
      "owa": 7222,
      "Ġanymore": 7223,
      "Ġflying": 7224,
      "ura": 7225,
      "Ġestimates": 7226,
      "ĠGer": 7227,
      "Ġevil": 7228,
      "Our": 7229,
      "apes": 7230,
      "Ġprovince": 7231,
      "imore": 7232,
      "Ġspin": 7233,
      "ĠKelly": 7234,
      "Ġrival": 7235,
      "Ġdistinct": 7236,
      "Ġregularly": 7237,
      "ĠMusic": 7238,
      "Ġangry": 7239,
      "ĠJoseph": 7240,
      "lder": 7241,
      "ĠFre": 7242,
      "Ġ39": 7243,
      "Ġcapture": 7244,
      "Ġunp": 7245,
      "ilarly": 7246,
      "Ġpayment": 7247,
      "ĠMarket": 7248,
      "ĠLGBT": 7249,
      "osis": 7250,
      "mo": 7251,
      "Ġicon": 7252,
      "adelphia": 7253,
      "Ġ42": 7254,
      "Ġparking": 7255,
      "ĠUlt": 7256,
      "Ġconcluded": 7257,
      "Ġroot": 7258,
      "ĠMinnes": 7259,
      "Ġupper": 7260,
      "ĠRay": 7261,
      "Ġactor": 7262,
      "Ġmayor": 7263,
      "Ġaccurate": 7264,
      "Ġbaseball": 7265,
      "Ġperfectly": 7266,
      "ĠMcG": 7267,
      "Ġcrucial": 7268,
      "Ġreturning": 7269,
      "02": 7270,
      "ĠKurd": 7271,
      "ivery": 7272,
      "ĠMarc": 7273,
      "Ġprepare": 7274,
      "ĠDisney": 7275,
      "Ġforest": 7276,
      "sea": 7277,
      "ĠWisconsin": 7278,
      "Ġ($": 7279,
      "Ġdozen": 7280,
      "eping": 7281,
      "Ġiron": 7282,
      "Ġnobody": 7283,
      "lers": 7284,
      "ĠViet": 7285,
      "Ġkeeps": 7286,
      "Ġengaged": 7287,
      "ĠâĢĻ": 7288,
      "ĠChampionship": 7289,
      "Ġsweet": 7290,
      "etary": 7291,
      "ĠBowl": 7292,
      "bal": 7293,
      "ĠDevelopment": 7294,
      "earing": 7295,
      "Ġstead": 7296,
      "irms": 7297,
      "ĠGall": 7298,
      "rage": 7299,
      "ĠFollowing": 7300,
      "Ġcontinuing": 7301,
      "Ġracial": 7302,
      "Ġcomic": 7303,
      "Ġnewly": 7304,
      "Ġcompens": 7305,
      "ĠDead": 7306,
      "ĠData": 7307,
      "aire": 7308,
      "Ġshares": 7309,
      "Ġworldwide": 7310,
      "amin": 7311,
      "icken": 7312,
      "Ġbom": 7313,
      "Ġterrible": 7314,
      "Ġweird": 7315,
      "Ġsight": 7316,
      "ĠVideo": 7317,
      "ingu": 7318,
      "ĠServices": 7319,
      "ker": 7320,
      "lock": 7321,
      "Ġbills": 7322,
      "67": 7323,
      "Ġsatell": 7324,
      "agram": 7325,
      "Ġboot": 7326,
      "Ġrecovery": 7327,
      "Ġregistered": 7328,
      "Ġmanip": 7329,
      "Ġloan": 7330,
      "ĠBry": 7331,
      "cow": 7332,
      "Ġconven": 7333,
      "Ġ150": 7334,
      "ĠConstitution": 7335,
      "ĠFood": 7336,
      "Ġroutine": 7337,
      "Ġrig": 7338,
      "elect": 7339,
      "ĠSeries": 7340,
      "lls": 7341,
      "inding": 7342,
      "Ġagric": 7343,
      "Ġtaught": 7344,
      "Ġmyth": 7345,
      "ĠMcCain": 7346,
      "Ġautomatically": 7347,
      "ĠManchester": 7348,
      "bell": 7349,
      "Ġsuccessfully": 7350,
      "ĠOS": 7351,
      "Ġrecon": 7352,
      "Ġincredible": 7353,
      "Ġextract": 7354,
      "Ġaudio": 7355,
      "Ġcollected": 7356,
      "Ġcrypt": 7357,
      "Ġexplanation": 7358,
      "Ġcomplaint": 7359,
      "________________": 7360,
      "Ġ1999": 7361,
      "Ġraising": 7362,
      "ĠDoes": 7363,
      "Ġaggressive": 7364,
      "gorith": 7365,
      "ĠSnow": 7366,
      "Ġincl": 7367,
      "regon": 7368,
      "Ġelite": 7369,
      "Ġinformed": 7370,
      "Ġtall": 7371,
      "tes": 7372,
      "ĠPhiladelphia": 7373,
      "ĠMinnesota": 7374,
      "ĠKir": 7375,
      "300": 7376,
      "ĠNic": 7377,
      "Ġgranted": 7378,
      "Ġkil": 7379,
      "Ġreporter": 7380,
      "mod": 7381,
      "Ġcontrols": 7382,
      "Ġpayments": 7383,
      "ĠJason": 7384,
      "Ġtank": 7385,
      "Ġdict": 7386,
      "ali": 7387,
      "Ġinstalled": 7388,
      "Ġmarked": 7389,
      "Ġsolve": 7390,
      "ĠSpain": 7391,
      "ĠGlobal": 7392,
      "ĠUse": 7393,
      "ĠTaylor": 7394,
      "Ġconclusion": 7395,
      "icate": 7396,
      "ĠSn": 7397,
      "ĠLittle": 7398,
      "Ġgro": 7399,
      "Ġadopted": 7400,
      "Ġgall": 7401,
      "ĠGreek": 7402,
      "Ġstuck": 7403,
      "azz": 7404,
      "ĠGreg": 7405,
      "orted": 7406,
      "Ġdegrees": 7407,
      "Ġproved": 7408,
      "rete": 7409,
      "idelines": 7410,
      "ĠReview": 7411,
      "Ġrepresented": 7412,
      "Photo": 7413,
      "CE": 7414,
      "ras": 7415,
      "Ġchances": 7416,
      "Ġpilot": 7417,
      "ĠAvenue": 7418,
      "Ġassistant": 7419,
      "Ġorganized": 7420,
      "Ġoperate": 7421,
      "ĠPolicy": 7422,
      "ĠRick": 7423,
      "sa": 7424,
      "Ġcitizen": 7425,
      "ifications": 7426,
      "ĠWithout": 7427,
      "ĠSometimes": 7428,
      "ba": 7429,
      "hips": 7430,
      "âĸ": 7431,
      "ĠOs": 7432,
      "Ġthin": 7433,
      "ima": 7434,
      "Ġaimed": 7435,
      "ĠParliament": 7436,
      "ĠJac": 7437,
      "Ġhabit": 7438,
      "lights": 7439,
      "Ġawesome": 7440,
      "Ġpenalty": 7441,
      "ĠPacific": 7442,
      "ĠRa": 7443,
      "Ġexcess": 7444,
      "Ġtrib": 7445,
      "Ġfake": 7446,
      "Ġextrem": 7447,
      "ĠAlab": 7448,
      "Ġvaluable": 7449,
      "Ġmonit": 7450,
      "Ġtechniques": 7451,
      "Ġcomplicated": 7452,
      "Ġtor": 7453,
      "Ġinfect": 7454,
      "Ġclients": 7455,
      "Ġlawyers": 7456,
      "Ġtherap": 7457,
      "actions": 7458,
      "Ġnarrative": 7459,
      "acked": 7460,
      "Ġroster": 7461,
      "Ġattended": 7462,
      "Ġmagic": 7463,
      "Ġpermanent": 7464,
      "onic": 7465,
      "Ġinspir": 7466,
      "cling": 7467,
      "uts": 7468,
      "Ġrecording": 7469,
      "uine": 7470,
      "Ġvisited": 7471,
      "Ġtied": 7472,
      "ibilities": 7473,
      "Ġextension": 7474,
      "ĠMoh": 7475,
      "Ġaccomp": 7476,
      "list": 7477,
      "Ġdemocratic": 7478,
      "ca": 7479,
      "ĠSeveral": 7480,
      "ÑĤ": 7481,
      "era": 7482,
      "Ġmail": 7483,
      "Ġphr": 7484,
      "Ġassistance": 7485,
      "86": 7486,
      "Ġcited": 7487,
      "Ġtitles": 7488,
      "iel": 7489,
      "eda": 7490,
      "sell": 7491,
      "inder": 7492,
      "writ": 7493,
      "Ġlawmakers": 7494,
      "Ġtur": 7495,
      "ĠNorthern": 7496,
      "Ġadmit": 7497,
      "MP": 7498,
      "hent": 7499,
      "Ġportion": 7500,
      "ĠHit": 7501,
      "Ġfrustr": 7502,
      "Ġhadn": 7503,
      "Ġteaching": 7504,
      "orne": 7505,
      "ĠHom": 7506,
      "mont": 7507,
      "Ġmainly": 7508,
      "Ġsympt": 7509,
      "aron": 7510,
      "Ġregardless": 7511,
      "Ġsufficient": 7512,
      "Ġsuffer": 7513,
      "Ġ400": 7514,
      "Ġcounty": 7515,
      "Ġnegotiations": 7516,
      "iscal": 7517,
      "Ġpace": 7518,
      "Ġrus": 7519,
      "Ġuncertain": 7520,
      "ĠCost": 7521,
      "ĠRose": 7522,
      "ĠFair": 7523,
      "ogether": 7524,
      "Ġ44": 7525,
      "++": 7526,
      "ĠBaltimore": 7527,
      "quarters": 7528,
      "Ġenable": 7529,
      "ye": 7530,
      "itals": 7531,
      "Ġestate": 7532,
      "ĠZeal": 7533,
      "Ġprocesses": 7534,
      "ĠPhotos": 7535,
      "Ġfunny": 7536,
      "ĠOregon": 7537,
      "Ġ64": 7538,
      "Ġgonna": 7539,
      "rypt": 7540,
      "Ġscenes": 7541,
      "Ġoverse": 7542,
      "Ġprominent": 7543,
      "making": 7544,
      "Ġprogramming": 7545,
      "Ġtracks": 7546,
      "pread": 7547,
      "Ġenjoyed": 7548,
      "ĠLA": 7549,
      "there": 7550,
      "Õ¡": 7551,
      "Ġemerged": 7552,
      "ĠEducation": 7553,
      "umer": 7554,
      "ĠÎ": 7555,
      "ules": 7556,
      "Ġentit": 7557,
      "Ġgaming": 7558,
      "iana": 7559,
      "ĠMir": 7560,
      "aturally": 7561,
      "ĠHenry": 7562,
      "An": 7563,
      "ĠEastern": 7564,
      "Ġreputation": 7565,
      "Ġfought": 7566,
      "Ġcorruption": 7567,
      "Ġafraid": 7568,
      "ĠAlabama": 7569,
      "Ġsurgery": 7570,
      "Ġdepending": 7571,
      "Ġblind": 7572,
      "Ġconspir": 7573,
      "Donald": 7574,
      "Ġdowntown": 7575,
      "Ġloud": 7576,
      "Ġtaxp": 7577,
      "Ġprinciples": 7578,
      "ĠMayor": 7579,
      "Ġunusual": 7580,
      "idency": 7581,
      "Ġdescribes": 7582,
      "ĠLinux": 7583,
      "ĠPerson": 7584,
      "Ġexplicit": 7585,
      "Ġinev": 7586,
      "enth": 7587,
      "Ġpossession": 7588,
      "ĠHarry": 7589,
      "Ġapolog": 7590,
      "Ġconsumption": 7591,
      "Ġtaste": 7592,
      "Ġ~": 7593,
      "Ġpod": 7594,
      "ĠSir": 7595,
      "Ġstrict": 7596,
      "Ġsurvive": 7597,
      "Ġcable": 7598,
      "========": 7599,
      "Ġacademic": 7600,
      "imp": 7601,
      "Ġsynt": 7602,
      "Ġintense": 7603,
      "Ġhidden": 7604,
      "%.": 7605,
      "ĠIowa": 7606,
      "arn": 7607,
      "bro": 7608,
      "Ġmedium": 7609,
      "ĠMrs": 7610,
      "ĠProfessor": 7611,
      "iler": 7612,
      "idespread": 7613,
      "Ġpersonnel": 7614,
      "Ġwithdraw": 7615,
      "Ġbes": 7616,
      "Ġwww": 7617,
      "Ġads": 7618,
      "Ġrecip": 7619,
      "ĠCoast": 7620,
      "69": 7621,
      "ĠArm": 7622,
      "rific": 7623,
      "viously": 7624,
      "Ġuniform": 7625,
      "ĠOak": 7626,
      "Ġanticip": 7627,
      "Ġmel": 7628,
      "Ġneutral": 7629,
      "Ġresource": 7630,
      "ĠPremier": 7631,
      "olt": 7632,
      "rently": 7633,
      "Ġresulted": 7634,
      "cr": 7635,
      "ĠKingdom": 7636,
      "world": 7637,
      "Ġdisaster": 7638,
      "Ġ47": 7639,
      "Ġequivalent": 7640,
      "Ġsanctions": 7641,
      "ĠNob": 7642,
      "active": 7643,
      "upid": 7644,
      "Ġimplementation": 7645,
      "osexual": 7646,
      "Man": 7647,
      "Ġpatterns": 7648,
      "Ġvisible": 7649,
      "ĠMedical": 7650,
      "ĠESP": 7651,
      "ĠFormer": 7652,
      "Ġpounds": 7653,
      "Ġsharp": 7654,
      "arsh": 7655,
      "Ġstrikes": 7656,
      "uan": 7657,
      "Ġveteran": 7658,
      "ĠRadio": 7659,
      "Ġvulnerable": 7660,
      "Ġborrow": 7661,
      "ĠAsh": 7662,
      "Ġshortly": 7663,
      "Ġadvis": 7664,
      "ATE": 7665,
      "Ġclubs": 7666,
      "da": 7667,
      "Ġchampionship": 7668,
      "âĢĺ": 7669,
      "text": 7670,
      "Ġbehalf": 7671,
      "ĠRand": 7672,
      "Ġdiscipl": 7673,
      "ĠOK": 7674,
      "ĠMid": 7675,
      "asion": 7676,
      "print": 7677,
      "Ġminority": 7678,
      "ĠRoyal": 7679,
      "Ġwarming": 7680,
      "\":": 7681,
      "Ġindex": 7682,
      "htt": 7683,
      "Ġcomputers": 7684,
      "Ġyield": 7685,
      "ĠCommunity": 7686,
      "Ġcameras": 7687,
      "athy": 7688,
      "ĠEs": 7689,
      "MS": 7690,
      "orough": 7691,
      "Ġrating": 7692,
      "ĠFC": 7693,
      "Ġexpectations": 7694,
      "03": 7695,
      "Ġduty": 7696,
      "rep": 7697,
      "Ġstab": 7698,
      "ria": 7699,
      "wr": 7700,
      "Ġbusy": 7701,
      "Ġcompete": 7702,
      "Ġpropag": 7703,
      "ĠList": 7704,
      "Ġsup": 7705,
      "Ġrarely": 7706,
      "At": 7707,
      "Ġphones": 7708,
      "Ġgenerated": 7709,
      "Ġrelief": 7710,
      "ded": 7711,
      "Ġlaid": 7712,
      "istent": 7713,
      "Ġenorm": 7714,
      "ifies": 7715,
      "ĠReuters": 7716,
      "Ġbeliefs": 7717,
      "ĠEnvironment": 7718,
      "month": 7719,
      "ĠAdministration": 7720,
      "Ġscenario": 7721,
      "Ġdefence": 7722,
      "Ġbrut": 7723,
      "front": 7724,
      "Ġalgorith": 7725,
      "iro": 7726,
      "Ġfault": 7727,
      "Ġfinance": 7728,
      "Ġtroub": 7729,
      "ĠZealand": 7730,
      "gun": 7731,
      "Ġ1960": 7732,
      "ĠCapt": 7733,
      "Ġdestruction": 7734,
      "Un": 7735,
      "ĠPoint": 7736,
      "ĠNAT": 7737,
      "ĠMoscow": 7738,
      "Ġcounsel": 7739,
      "ĠAS": 7740,
      "prise": 7741,
      "Ġ=>": 7742,
      "Ġhistoric": 7743,
      "Ġstations": 7744,
      "Ġsaved": 7745,
      "Ġinnoc": 7746,
      "Ġbrowser": 7747,
      "ione": 7748,
      "Ġshoulder": 7749,
      "ĠUsing": 7750,
      "etts": 7751,
      "rell": 7752,
      "ĠBrother": 7753,
      "Ġexception": 7754,
      "Ġeverywhere": 7755,
      "etime": 7756,
      "Ġstable": 7757,
      "ĠInformation": 7758,
      "Ġformal": 7759,
      "Ġcyber": 7760,
      "ĠConference": 7761,
      "olis": 7762,
      "scape": 7763,
      "Ġ1998": 7764,
      "Ġspr": 7765,
      "ĠDiego": 7766,
      "Ġelev": 7767,
      "??": 7768,
      "Ġheaded": 7769,
      "Ġgenuine": 7770,
      "Ġpermission": 7771,
      "Ġbasketball": 7772,
      "Oh": 7773,
      "Ġarrange": 7774,
      "Ġcreates": 7775,
      "Ġpasses": 7776,
      "Ġprivile": 7777,
      "izon": 7778,
      "Ġfeelings": 7779,
      "ĠRoman": 7780,
      "ĠTurkish": 7781,
      "Ġthick": 7782,
      "ĠNC": 7783,
      "Ġshock": 7784,
      "Ġfounded": 7785,
      "Ġengineering": 7786,
      "Ġacceler": 7787,
      "Ġlosses": 7788,
      "ĠUFC": 7789,
      "Ġveget": 7790,
      "zy": 7791,
      "ĠAp": 7792,
      "ĠSa": 7793,
      "ĠWhether": 7794,
      "Ġincent": 7795,
      "Ġprinciple": 7796,
      "ĠKat": 7797,
      "Ġprofession": 7798,
      "Ġneighb": 7799,
      "ĠAud": 7800,
      "ĠHead": 7801,
      "ĠGiven": 7802,
      "Ġlights": 7803,
      "ĠBall": 7804,
      "sylv": 7805,
      "Ġrecru": 7806,
      "Ġcontracts": 7807,
      "Ġfirms": 7808,
      "Ġillustr": 7809,
      "Ġju": 7810,
      "Ġparticipate": 7811,
      "ogen": 7812,
      "Ġadvertising": 7813,
      "Ġproducer": 7814,
      "ĠLuc": 7815,
      "ikes": 7816,
      "Ġdrawing": 7817,
      "ami": 7818,
      "Ġbath": 7819,
      "Ġwonderful": 7820,
      "LC": 7821,
      "ja": 7822,
      "ashes": 7823,
      "Ġgained": 7824,
      "mented": 7825,
      "mal": 7826,
      "Ġfoundation": 7827,
      "AG": 7828,
      "ĠRos": 7829,
      "FF": 7830,
      "Ġcrop": 7831,
      "Ġdoors": 7832,
      "inking": 7833,
      "amber": 7834,
      "Ġentering": 7835,
      "Ġ55": 7836,
      "ho": 7837,
      "interest": 7838,
      "Ġexposure": 7839,
      "Ġfarmers": 7840,
      "Ġroles": 7841,
      "Ġ43": 7842,
      "Ġaffili": 7843,
      "Ġmagn": 7844,
      "Ġdeliber": 7845,
      "eland": 7846,
      "Ġdozens": 7847,
      "Ġarrive": 7848,
      "Ġedition": 7849,
      "Ġcorporations": 7850,
      "ĠCO": 7851,
      "Ġridic": 7852,
      "Ġpump": 7853,
      "Ġspark": 7854,
      "Ġliked": 7855,
      "Ġwidespread": 7856,
      "ĠDownload": 7857,
      "ĠSus": 7858,
      "ĠBull": 7859,
      "Ġobst": 7860,
      "Ex": 7861,
      "ĠPatrick": 7862,
      "ixed": 7863,
      "Ġwing": 7864,
      "ĠBudd": 7865,
      "mad": 7866,
      "ĠSet": 7867,
      "ĠIR": 7868,
      "ĠEmail": 7869,
      "TH": 7870,
      "Ġhired": 7871,
      "ĠTown": 7872,
      "ĠPennsylv": 7873,
      "ĠSpring": 7874,
      "ĠHo": 7875,
      "Ġ46": 7876,
      "ologists": 7877,
      "Ġstruggling": 7878,
      "bn": 7879,
      "ĠNavy": 7880,
      "Ġ->": 7881,
      "Ġrely": 7882,
      "Ġuncom": 7883,
      "anted": 7884,
      "esy": 7885,
      "ilipp": 7886,
      "ĠIce": 7887,
      "ĠSix": 7888,
      "nedy": 7889,
      "ĠExt": 7890,
      "ĠOnt": 7891,
      "char": 7892,
      "ĠAtlanta": 7893,
      "Ġ65": 7894,
      "Ġdescription": 7895,
      "97": 7896,
      "Ġbanned": 7897,
      "Ġnominee": 7898,
      "ĠMah": 7899,
      "ĠBattle": 7900,
      "Ġhole": 7901,
      "ĠRen": 7902,
      "Ġestablishment": 7903,
      "Ġcomponent": 7904,
      "ouch": 7905,
      "Ġdiscrimination": 7906,
      "lan": 7907,
      "Ġstadium": 7908,
      "Ġbridge": 7909,
      "Ġbail": 7910,
      "Ġtox": 7911,
      "ĠHor": 7912,
      "Ġpriority": 7913,
      "ĠBernie": 7914,
      "Ġfee": 7915,
      "Ġrecognized": 7916,
      "ĠFamily": 7917,
      "Ġcontaining": 7918,
      "Ġcollapse": 7919,
      "ĠSams": 7920,
      "cles": 7921,
      "!!!!!!!!": 7922,
      "Ġships": 7923,
      "who": 7924,
      "athered": 7925,
      "fall": 7926,
      "oice": 7927,
      "Ġtoler": 7928,
      "ulating": 7929,
      "Ġhang": 7930,
      "profit": 7931,
      "ĠCook": 7932,
      "Ġrestrictions": 7933,
      "Ġstructures": 7934,
      "Ġelectronic": 7935,
      "ĠAlbert": 7936,
      "ĠAustin": 7937,
      "core": 7938,
      "Ñģ": 7939,
      "igen": 7940,
      "ĠExper": 7941,
      "lete": 7942,
      "Ġinterviews": 7943,
      "ĠMatthew": 7944,
      "Ġupset": 7945,
      "achus": 7946,
      "Ġreduction": 7947,
      "ĠWH": 7948,
      "Ġairport": 7949,
      "antic": 7950,
      "ĠHT": 7951,
      "oured": 7952,
      "ĠRelated": 7953,
      "ĠPop": 7954,
      "mate": 7955,
      "ĠTri": 7956,
      "Ġjournalist": 7957,
      "ĠTenn": 7958,
      "found": 7959,
      "ĠSat": 7960,
      "agger": 7961,
      "Ġshit": 7962,
      "Ġ41": 7963,
      "mann": 7964,
      "anna": 7965,
      "Ġbegun": 7966,
      "ĠABC": 7967,
      "Ġplate": 7968,
      "Ġho": 7969,
      "ĠLater": 7970,
      "Ġforever": 7971,
      "eman": 7972,
      "Ġnormally": 7973,
      "teen": 7974,
      "ferences": 7975,
      "Ġintellectual": 7976,
      "ĠPennsylvania": 7977,
      "Ġmilk": 7978,
      "burgh": 7979,
      "Ġphilosophy": 7980,
      "ĠSS": 7981,
      "ĠAcademy": 7982,
      "ĠField": 7983,
      "oen": 7984,
      "ĠHell": 7985,
      "ounced": 7986,
      "ĠCentre": 7987,
      "Ġsettlement": 7988,
      "eding": 7989,
      "Ġkicked": 7990,
      "away": 7991,
      "ĠCre": 7992,
      "Ġfriendly": 7993,
      "olen": 7994,
      "ĠStat": 7995,
      "ĠGaza": 7996,
      "ultural": 7997,
      "portion": 7998,
      "One": 7999,
      "Ġfootage": 8000,
      "Ġwebsites": 8001,
      "ĠSH": 8002,
      "Ġproducing": 8003,
      "âĢĻ,": 8004,
      "Ġexternal": 8005,
      "Ġscoring": 8006,
      "Ġinterface": 8007,
      "Ġmovements": 8008,
      "ĠHa": 8009,
      "ĠJam": 8010,
      "Ġsubjects": 8011,
      "ĠGov": 8012,
      "Ġchat": 8013,
      "Ġbacked": 8014,
      "ĠSeason": 8015,
      "ĠHoward": 8016,
      "Ġtag": 8017,
      "Ġcha": 8018,
      "dem": 8019,
      "uce": 8020,
      "ilton": 8021,
      "ĠAsk": 8022,
      "ĠGreece": 8023,
      "Ġcarefully": 8024,
      "Ġcampaigns": 8025,
      "Ġphotograph": 8026,
      "ĠAmendment": 8027,
      "Ġachieved": 8028,
      "\".[": 8029,
      "96": 8030,
      "Ġren": 8031,
      "Ġdeputy": 8032,
      "Ġconvin": 8033,
      "ĠKeep": 8034,
      "fr": 8035,
      "ĠDev": 8036,
      "Ġreducing": 8037,
      "Ġproven": 8038,
      "usive": 8039,
      "achusetts": 8040,
      "ĠRus": 8041,
      "Ġwarrant": 8042,
      "Ġprogressive": 8043,
      "Ġlistening": 8044,
      "auc": 8045,
      "ĠKennedy": 8046,
      "Ġmanufacturing": 8047,
      "))": 8048,
      "bec": 8049,
      "ĠNOT": 8050,
      "Ġlegend": 8051,
      "Ġconvicted": 8052,
      "ĠWas": 8053,
      "ecut": 8054,
      "Ġcompare": 8055,
      "cription": 8056,
      "ÂĴ": 8057,
      "Ġreprodu": 8058,
      "ĠBang": 8059,
      "ĠPot": 8060,
      "Ġrose": 8061,
      "Ġrecognition": 8062,
      "ĠBon": 8063,
      "Ġtechnique": 8064,
      "then": 8065,
      "ĠMain": 8066,
      "ĠJay": 8067,
      "Ġsmile": 8068,
      "ĠBrew": 8069,
      "ĠDE": 8070,
      "Ġsmooth": 8071,
      "enny": 8072,
      "ĠWalker": 8073,
      "ĠBad": 8074,
      "Ġscream": 8075,
      "74": 8076,
      "udes": 8077,
      "Ġcontained": 8078,
      "Ġaver": 8079,
      "cover": 8080,
      "ĠCirc": 8081,
      "Ġrapidly": 8082,
      "ĠColumbia": 8083,
      "abinet": 8084,
      "Ġhitting": 8085,
      "Ġexceed": 8086,
      "icket": 8087,
      "ĠSquare": 8088,
      "Ġgift": 8089,
      "Ġliquid": 8090,
      "ĠLyn": 8091,
      "sl": 8092,
      "ĠHon": 8093,
      "ĠLy": 8094,
      "Ġneighbour": 8095,
      "ĠChair": 8096,
      "Ġcos": 8097,
      "Ġtip": 8098,
      "ĠHay": 8099,
      "ĠSamsung": 8100,
      "rical": 8101,
      "rative": 8102,
      "imm": 8103,
      "ĠPack": 8104,
      "Ġperpet": 8105,
      "ĠEarlier": 8106,
      "Ġgenetic": 8107,
      "Ġscores": 8108,
      "Ġutil": 8109,
      "Ġindependence": 8110,
      "riers": 8111,
      "ĠForm": 8112,
      "appy": 8113,
      "ĠVR": 8114,
      "Ð½": 8115,
      "type": 8116,
      "ĠAction": 8117,
      "Ġgear": 8118,
      "ML": 8119,
      "ĠYeah": 8120,
      "ystem": 8121,
      "Ġanger": 8122,
      "Ġunex": 8123,
      "ĠHD": 8124,
      "Ġbranch": 8125,
      "Ġfiction": 8126,
      "lah": 8127,
      "heast": 8128,
      "Ġsensitive": 8129,
      "senal": 8130,
      "aching": 8131,
      "ĠAnthony": 8132,
      "ĠStone": 8133,
      "Ġscientist": 8134,
      "ĠIII": 8135,
      "Ġconstitutional": 8136,
      "ĠMassachusetts": 8137,
      "rous": 8138,
      "Ġflaw": 8139,
      "this": 8140,
      "Ġjury": 8141,
      "een": 8142,
      "ĠHaving": 8143,
      "Ġreaching": 8144,
      "rators": 8145,
      "ĠPrice": 8146,
      "Ġ%": 8147,
      "Ġtail": 8148,
      "Ġprocessing": 8149,
      "aska": 8150,
      "ĠIndepend": 8151,
      "ĠPlus": 8152,
      "obs": 8153,
      "Ġconnections": 8154,
      "Ġsuggesting": 8155,
      "Ġpractical": 8156,
      "ĠAND": 8157,
      "ĠLatin": 8158,
      "ĠESPN": 8159,
      "Ġhide": 8160,
      "Ġnotion": 8161,
      "page": 8162,
      "Ġasks": 8163,
      "Ġcaptain": 8164,
      "Ġwalls": 8165,
      "Ġrecover": 8166,
      "Ġtransgender": 8167,
      "ĠConservative": 8168,
      "ĠLind": 8169,
      "Ġtonight": 8170,
      "Ġbarely": 8171,
      "à¸": 8172,
      "ĠON": 8173,
      "Ġchallenging": 8174,
      "Ġdeeper": 8175,
      "Ġusage": 8176,
      "Ġcontribute": 8177,
      "Ġelig": 8178,
      "engers": 8179,
      "fare": 8180,
      "Ġfinger": 8181,
      "85": 8182,
      "Ġwheel": 8183,
      "Ġ1996": 8184,
      "Ġrepresentative": 8185,
      "Ġreviews": 8186,
      "ĠCBS": 8187,
      "ĠCameron": 8188,
      "Ġocean": 8189,
      "owing": 8190,
      "cific": 8191,
      "Ġequally": 8192,
      "400": 8193,
      "Ġlanguages": 8194,
      "Ġexclusive": 8195,
      "weet": 8196,
      "ĠiP": 8197,
      "Ġcasual": 8198,
      "Ġwars": 8199,
      "ĠAllen": 8200,
      "Ġminds": 8201,
      "=~": 8202,
      "Ġflash": 8203,
      "ĠRoss": 8204,
      "lad": 8205,
      "Ġgrass": 8206,
      "lessly": 8207,
      "Ġtickets": 8208,
      "ĠDivision": 8209,
      "Ġterrorists": 8210,
      "ĠWW": 8211,
      "Ġinvent": 8212,
      "Ġinvited": 8213,
      "ĠIraqi": 8214,
      "Ġvary": 8215,
      "Ġdevast": 8216,
      "uma": 8217,
      "Ġepisodes": 8218,
      "ĠDeath": 8219,
      "ĠDesign": 8220,
      "Ġindicated": 8221,
      "Ġanybody": 8222,
      "Ġfrag": 8223,
      "%,": 8224,
      "ĠRoy": 8225,
      "Ġunclear": 8226,
      "Ġriver": 8227,
      "ĠKong": 8228,
      "Ġsin": 8229,
      "Ġhardly": 8230,
      "Ġtackle": 8231,
      "ĠFinal": 8232,
      "ĠLewis": 8233,
      "Ġ1997": 8234,
      "Ġillness": 8235,
      "ĠGuardian": 8236,
      "Ġlists": 8237,
      "Ġlobby": 8238,
      "Ġcannabis": 8239,
      "BO": 8240,
      "uties": 8241,
      "Ġracist": 8242,
      "Ġpoly": 8243,
      "Ġinvolvement": 8244,
      "gener": 8245,
      "abs": 8246,
      "ĠProv": 8247,
      "Ġcivilians": 8248,
      "ĠLar": 8249,
      "Ġhumanity": 8250,
      "unior": 8251,
      "ĠAle": 8252,
      "ĠPu": 8253,
      "Ġdelivery": 8254,
      "Ġneck": 8255,
      "Getty": 8256,
      "rik": 8257,
      "Ġhandful": 8258,
      "inois": 8259,
      "Ġconvinced": 8260,
      "Ġmo": 8261,
      "Ġsmoke": 8262,
      "Ġhook": 8263,
      "ĠTour": 8264,
      "ĠRuby": 8265,
      "ĠPhilipp": 8266,
      "Ġretired": 8267,
      "Ġversus": 8268,
      "Ġtrigger": 8269,
      "Ġoverwhelming": 8270,
      "ĠOtt": 8271,
      "ĠHospital": 8272,
      "usted": 8273,
      "Ġloyal": 8274,
      "Ġcomprehens": 8275,
      "ĠControl": 8276,
      "allel": 8277,
      "yer": 8278,
      "Ġunemployment": 8279,
      "Ġsoil": 8280,
      "Ġincorpor": 8281,
      "ĠPent": 8282,
      "HS": 8283,
      "Ġestimate": 8284,
      "ĠMinistry": 8285,
      "Ġalien": 8286,
      "Ġguitar": 8287,
      "Be": 8288,
      "ĠKansas": 8289,
      "ĠMORE": 8290,
      "ÑĢ": 8291,
      "iti": 8292,
      "Ġbra": 8293,
      "Ġham": 8294,
      "Ġvital": 8295,
      "Ġovert": 8296,
      "Ġfears": 8297,
      "Ġethnic": 8298,
      "Ġserves": 8299,
      "Ġstatistics": 8300,
      "xit": 8301,
      "ĠRevolution": 8302,
      "ouver": 8303,
      "veland": 8304,
      "arrass": 8305,
      "PC": 8306,
      "Pe": 8307,
      "Ġsalary": 8308,
      "ĠBroad": 8309,
      "ester": 8310,
      "umes": 8311,
      "ĠNSA": 8312,
      "rolled": 8313,
      "ĠMuseum": 8314,
      "worth": 8315,
      "Ġvisitors": 8316,
      "Ġbehaviour": 8317,
      "Ġremem": 8318,
      "Ġaffairs": 8319,
      "Ġrif": 8320,
      "isp": 8321,
      "Ġimprovements": 8322,
      "ĠIranian": 8323,
      "Ġrobot": 8324,
      "wo": 8325,
      "Ġrespectively": 8326,
      "ĠJustin": 8327,
      "87": 8328,
      "ifest": 8329,
      "Ġpeak": 8330,
      "Ġexpanded": 8331,
      "ĠShort": 8332,
      "ĠChristians": 8333,
      "Ġgrounds": 8334,
      "Ġreferend": 8335,
      "With": 8336,
      "Ġsoph": 8337,
      "angel": 8338,
      "ĠFreedom": 8339,
      "ĠConnect": 8340,
      "Ġfailing": 8341,
      "ĠLine": 8342,
      "Ġtheat": 8343,
      "iy": 8344,
      "ĠDave": 8345,
      "Ġinitiative": 8346,
      "raph": 8347,
      "Ġimplemented": 8348,
      "ĠBase": 8349,
      "ĠUnt": 8350,
      "Ġpublication": 8351,
      "Ġinvestigate": 8352,
      "ĠâĪĴ": 8353,
      "ĠHong": 8354,
      "Ġmining": 8355,
      "ĠSony": 8356,
      "ĠLiver": 8357,
      "Ġeastern": 8358,
      "ĠCommon": 8359,
      "Ġframework": 8360,
      "Ġroads": 8361,
      "Ġfantasy": 8362,
      "ĠNATO": 8363,
      "Ġluck": 8364,
      "ĠTen": 8365,
      "ĠMult": 8366,
      "Ġdisagree": 8367,
      "oding": 8368,
      "ĠBa": 8369,
      "ictions": 8370,
      "ĠFront": 8371,
      "Ġassociation": 8372,
      "Ġtasks": 8373,
      "Ġhanded": 8374,
      "Ġlayer": 8375,
      "ĠCore": 8376,
      "ancouver": 8377,
      "Ġwelf": 8378,
      "ĠEff": 8379,
      "Ġscreens": 8380,
      "Ġpurchased": 8381,
      "Ġsorry": 8382,
      "Ġtrained": 8383,
      "including": 8384,
      "Ġjoining": 8385,
      "Ġreferring": 8386,
      "Ġkitchen": 8387,
      "ĠGun": 8388,
      "vard": 8389,
      "ĠMarvel": 8390,
      "Ġfeaturing": 8391,
      "Ġraw": 8392,
      "Ġbarrel": 8393,
      "Ġsamples": 8394,
      "Ġattacking": 8395,
      "Ġprofits": 8396,
      "Ġactors": 8397,
      "Ġwelfare": 8398,
      "Ġcomplaints": 8399,
      "osit": 8400,
      "Ġdiscussions": 8401,
      "Ġawareness": 8402,
      "Ġextend": 8403,
      "ĠIllinois": 8404,
      "plete": 8405,
      "Ġreven": 8406,
      "Ġrural": 8407,
      "'.": 8408,
      "pat": 8409,
      "ĠLim": 8410,
      "Ġ2019": 8411,
      "sels": 8412,
      "case": 8413,
      "Ġmenu": 8414,
      "Ġfiscal": 8415,
      "ington": 8416,
      "ĠSure": 8417,
      "UL": 8418,
      "Ġholiday": 8419,
      "ĠQueen": 8420,
      "ĠAge": 8421,
      "Ġprosec": 8422,
      "ĠStadium": 8423,
      "Ġregister": 8424,
      "Ġcollective": 8425,
      "Ġfab": 8426,
      "ipal": 8427,
      "Ġmathem": 8428,
      "ĠSound": 8429,
      "ĠEqu": 8430,
      "ĠAdv": 8431,
      "ihad": 8432,
      "RI": 8433,
      "Ġsugar": 8434,
      "Ġdefine": 8435,
      "ĠLow": 8436,
      "Ġtemporary": 8437,
      "Ġdiscovery": 8438,
      "Ġremarks": 8439,
      "Ġthrown": 8440,
      "ĠMaster": 8441,
      "Ġaccus": 8442,
      "Ġhorror": 8443,
      "Ġstrategic": 8444,
      "Ġoffices": 8445,
      "ĠCredit": 8446,
      "ĠCooper": 8447,
      "hour": 8448,
      "Ġlegitimate": 8449,
      "\")": 8450,
      "Ġscandal": 8451,
      "Ġfantastic": 8452,
      "ĠAnton": 8453,
      "Ġinject": 8454,
      "ĠPo": 8455,
      "ĠOklah": 8456,
      "Ġcogn": 8457,
      "Ġlegs": 8458,
      "Ġcontroversy": 8459,
      "Ġcareful": 8460,
      "ĠFive": 8461,
      "aret": 8462,
      "2012": 8463,
      "Ġstupid": 8464,
      "Ġhypot": 8465,
      "Ġdynamic": 8466,
      "CA": 8467,
      "iversary": 8468,
      "Ġultimate": 8469,
      "ĠLeft": 8470,
      "Ġgathered": 8471,
      "ĠGolden": 8472,
      "Im": 8473,
      "Ġtestim": 8474,
      "ĠLiberal": 8475,
      "ĠMarsh": 8476,
      "Ġbrill": 8477,
      "repre": 8478,
      "ĠPitt": 8479,
      "Ġfoss": 8480,
      "ĠArabia": 8481,
      "Ġattached": 8482,
      "Ġdepends": 8483,
      "Ġproviders": 8484,
      "Ġplatforms": 8485,
      "Ġbars": 8486,
      "Ġentertainment": 8487,
      "Ġreader": 8488,
      "aka": 8489,
      "ĠExpl": 8490,
      "EG": 8491,
      "acon": 8492,
      "ĠEngine": 8493,
      "Ġpapers": 8494,
      "Ġcovers": 8495,
      "Ġ51": 8496,
      "ĠCleveland": 8497,
      "Ġattempting": 8498,
      "Ġceleb": 8499,
      "ĠDeb": 8500,
      "Ġbug": 8501,
      "Ġsuspected": 8502,
      "phones": 8503,
      "inf": 8504,
      "Ġheading": 8505,
      "reprene": 8506,
      "Ġregulation": 8507,
      "Ġlicens": 8508,
      "Ġscholars": 8509,
      "Ġabsence": 8510,
      "Ġignore": 8511,
      "thon": 8512,
      "Ġinvestigating": 8513,
      "ĠMaryland": 8514,
      "Ġtweeted": 8515,
      "Ġviewers": 8516,
      "icity": 8517,
      "ĠAbb": 8518,
      "Ġhorse": 8519,
      "Ġtone": 8520,
      "Ġstayed": 8521,
      "ĠPass": 8522,
      "Ġimprovement": 8523,
      "Ġadvocates": 8524,
      "aning": 8525,
      "Ġguest": 8526,
      "Ġdramatic": 8527,
      "Ġfulf": 8528,
      "ĠUnlike": 8529,
      "Ġsubstantial": 8530,
      "hot": 8531,
      "ĠVancouver": 8532,
      "72": 8533,
      "Ġattitude": 8534,
      "76": 8535,
      "PG": 8536,
      "ĠArk": 8537,
      "Ġsettings": 8538,
      "Every": 8539,
      "Ġinvolves": 8540,
      "ammed": 8541,
      "Ġinnovation": 8542,
      "dney": 8543,
      "ĠAward": 8544,
      "Ġstake": 8545,
      "Ġmarks": 8546,
      "=~=~": 8547,
      ">>": 8548,
      "ĠCustom": 8549,
      "icking": 8550,
      "Ġinquir": 8551,
      "Ġabst": 8552,
      "Ġownership": 8553,
      "Ġgam": 8554,
      "ĠAnderson": 8555,
      "ĠTechnology": 8556,
      "Ġrecall": 8557,
      "itionally": 8558,
      "Ġporn": 8559,
      "ĠEvent": 8560,
      "ogs": 8561,
      "mary": 8562,
      "ĠMun": 8563,
      "Ġpetition": 8564,
      "Ġclothes": 8565,
      "ĠTai": 8566,
      "Ġrational": 8567,
      "PM": 8568,
      "Ġamid": 8569,
      "Ġbrothers": 8570,
      "ĠOklahoma": 8571,
      "Ġraces": 8572,
      "Ġinvestigators": 8573,
      "Ġexit": 8574,
      "Ġpromises": 8575,
      "Ġmountain": 8576,
      "har": 8577,
      "wered": 8578,
      "Ġintervention": 8579,
      "Ġstone": 8580,
      "ĠHind": 8581,
      "ĠUpdate": 8582,
      "ommod": 8583,
      "Ġenormous": 8584,
      "Ġinner": 8585,
      "dri": 8586,
      "Ġpresum": 8587,
      "Ġsymptoms": 8588,
      "Ġfactory": 8589,
      "Ġmissile": 8590,
      "Ġdispl": 8591,
      "Ġactivist": 8592,
      "Ġsuspended": 8593,
      "Ġrecommended": 8594,
      "Ġtomorrow": 8595,
      "Ġfallen": 8596,
      "ĠChel": 8597,
      "tering": 8598,
      "abeth": 8599,
      "Ġwages": 8600,
      "oval": 8601,
      "Ġastron": 8602,
      "Ġnoise": 8603,
      "ĠRun": 8604,
      "Ġinstitution": 8605,
      "des": 8606,
      "Ġranked": 8607,
      "from": 8608,
      "Ġassist": 8609,
      "Ġpreced": 8610,
      "Ġspiritual": 8611,
      "Ġmos": 8612,
      "EST": 8613,
      "uros": 8614,
      "Ġsteel": 8615,
      "iability": 8616,
      "umin": 8617,
      "Ġovers": 8618,
      "ĠCorpor": 8619,
      "ustration": 8620,
      "ĠâĢĿ": 8621,
      "itage": 8622,
      "Ġbrown": 8623,
      "EE": 8624,
      "Ġbub": 8625,
      "Ġgains": 8626,
      "olves": 8627,
      "ĠFall": 8628,
      "isk": 8629,
      "ĠLink": 8630,
      "Ġresign": 8631,
      "Ġcontributions": 8632,
      "rance": 8633,
      "ĠBron": 8634,
      "Ġdance": 8635,
      "rator": 8636,
      "ĠRather": 8637,
      "ĠVegas": 8638,
      "Not": 8639,
      "aying": 8640,
      "Ġembarrass": 8641,
      "ĠNone": 8642,
      "rets": 8643,
      "iences": 8644,
      "Ġreferendum": 8645,
      "rient": 8646,
      "Ġ52": 8647,
      "Ġaddressed": 8648,
      "ĠProp": 8649,
      "Õ¡Õ": 8650,
      "ĠVill": 8651,
      "ĠFact": 8652,
      "ĠSanta": 8653,
      ".-": 8654,
      "maker": 8655,
      "hesis": 8656,
      "ĠBeach": 8657,
      "Ġshr": 8658,
      "Ġnoting": 8659,
      "Ġextraord": 8660,
      "Ġouts": 8661,
      "ective": 8662,
      "bi": 8663,
      "keep": 8664,
      "cience": 8665,
      "Ġcoc": 8666,
      "yard": 8667,
      "Ġcust": 8668,
      "Ġrhet": 8669,
      "Ġvoter": 8670,
      "ĠPrince": 8671,
      "Ġbacter": 8672,
      "Ġlying": 8673,
      "ahu": 8674,
      "ĠEver": 8675,
      "Ġprotecting": 8676,
      "Ġprotein": 8677,
      "Ġfed": 8678,
      "Ġlucky": 8679,
      "claim": 8680,
      "Ġjur": 8681,
      "Ġlowest": 8682,
      "ĠDream": 8683,
      "ĠMexican": 8684,
      "Ġbureau": 8685,
      "uted": 8686,
      "ĠWarren": 8687,
      "Ġdeficit": 8688,
      "Ġratio": 8689,
      "ĠGetty": 8690,
      "PP": 8691,
      "ĠTed": 8692,
      "Ġencouraged": 8693,
      "ĠBuff": 8694,
      "Ġmonitor": 8695,
      "Ġvirtually": 8696,
      "Ġjoke": 8697,
      "Ġpersonality": 8698,
      "Ġguarantee": 8699,
      "otype": 8700,
      "ĠCopy": 8701,
      "itary": 8702,
      "Ġcomedy": 8703,
      "ĠUr": 8704,
      "Ġseemingly": 8705,
      "Ġappreciate": 8706,
      "ĠâĤ¬": 8707,
      "Ġabandoned": 8708,
      "Ġloans": 8709,
      "intendo": 8710,
      "Ġmusical": 8711,
      "ĠTech": 8712,
      "Ġsilver": 8713,
      "Ġconsistently": 8714,
      "Ġconversations": 8715,
      "Ġwine": 8716,
      "ieties": 8717,
      "Ġfruit": 8718,
      "Ġdiversity": 8719,
      "Ġviewed": 8720,
      "Ġrook": 8721,
      "Ġopinions": 8722,
      "Ġdrew": 8723,
      "Ġdisrupt": 8724,
      "ĠSweden": 8725,
      "ĠNon": 8726,
      "Ġ(âĢľ": 8727,
      "Ġspaces": 8728,
      "Ġincidents": 8729,
      "Ġbuff": 8730,
      "Ġ1995": 8731,
      "Ġcommonly": 8732,
      "inch": 8733,
      "ivals": 8734,
      "Ġdistributed": 8735,
      "iece": 8736,
      "Ġcolors": 8737,
      "ãĢ": 8738,
      "Ġcoaches": 8739,
      "Ġbreaks": 8740,
      "ĠIndiana": 8741,
      "Ġtries": 8742,
      "ĠAli": 8743,
      "Ġefficiency": 8744,
      "Ġhandling": 8745,
      "ĠXbox": 8746,
      "Ġthrew": 8747,
      "Ġmedicine": 8748,
      "log": 8749,
      "ĠMill": 8750,
      "Ġmic": 8751,
      "Ġtemperatures": 8752,
      "ĠLear": 8753,
      "Ġlogic": 8754,
      "Ġshopping": 8755,
      "ĠNorm": 8756,
      "Ġlets": 8757,
      "Ġdad": 8758,
      "Ġsubsequent": 8759,
      "Ġje": 8760,
      "Ġreplacement": 8761,
      "ĠTro": 8762,
      "Ġboat": 8763,
      "Ġaccommod": 8764,
      "Ġdomain": 8765,
      "ĠLiverpool": 8766,
      "ĠEveryone": 8767,
      "ĠCreat": 8768,
      "ĠHarris": 8769,
      "Ġhomeless": 8770,
      "ĠEarly": 8771,
      "Ġpremium": 8772,
      "BM": 8773,
      "Ġjoy": 8774,
      "ĠAk": 8775,
      "ĠKar": 8776,
      "Ġele": 8777,
      "usalem": 8778,
      "ĠSaf": 8779,
      "ĠIntelligence": 8780,
      "Ġimproving": 8781,
      "Ġ_": 8782,
      "ĠSon": 8783,
      "Ġspeaks": 8784,
      "\">": 8785,
      "ĠUC": 8786,
      "Ġconspiracy": 8787,
      "Ġhint": 8788,
      "ĠSel": 8789,
      "aga": 8790,
      "Ġles": 8791,
      "Ġmistakes": 8792,
      "Ġì": 8793,
      "Ġrevel": 8794,
      "amac": 8795,
      "ĠIndust": 8796,
      "Ġconce": 8797,
      "ĠSydney": 8798,
      "Ġpartnership": 8799,
      "Ġcovering": 8800,
      "omes": 8801,
      "ĠFigure": 8802,
      "Ġreads": 8803,
      "geon": 8804,
      "ĠHarvard": 8805,
      "Ġpopulations": 8806,
      "heim": 8807,
      "ĠLas": 8808,
      "Ġstudied": 8809,
      "Ġinflation": 8810,
      "Ġshout": 8811,
      "ĠAst": 8812,
      "mental": 8813,
      "Ġprogramme": 8814,
      "ĠiOS": 8815,
      "UN": 8816,
      "ĠShould": 8817,
      "Ġwrest": 8818,
      "ĠBra": 8819,
      "pload": 8820,
      "Ġjudges": 8821,
      "ĠFootball": 8822,
      "!)": 8823,
      "FA": 8824,
      "Ġportray": 8825,
      "zed": 8826,
      "ĠPict": 8827,
      "Ġranks": 8828,
      "Ġappointed": 8829,
      "Ġignored": 8830,
      "Ġdiverse": 8831,
      "Ġexch": 8832,
      "Ġmad": 8833,
      "agh": 8834,
      "Ġchapter": 8835,
      "Ġstages": 8836,
      "Ġpassengers": 8837,
      "ijing": 8838,
      "ĠCow": 8839,
      "ropri": 8840,
      "Ġsurvival": 8841,
      "ĠGovernor": 8842,
      "Ġingred": 8843,
      "Ġfestival": 8844,
      "aping": 8845,
      "Ġreplied": 8846,
      "ĠEliz": 8847,
      "Ġdivided": 8848,
      "Ġordinary": 8849,
      "ĠBatman": 8850,
      "Ġmaps": 8851,
      "Ġinsisted": 8852,
      "Ġtrem": 8853,
      "Ġdemonst": 8854,
      "bridge": 8855,
      "ĠExecut": 8856,
      "Ġauthent": 8857,
      "Ġproposals": 8858,
      "These": 8859,
      "ĠSilver": 8860,
      "Ġacknowledged": 8861,
      "Ġbread": 8862,
      "Ġfunded": 8863,
      "Script": 8864,
      "eters": 8865,
      "Ġheadquarters": 8866,
      "fund": 8867,
      "ĠEth": 8868,
      "Ġstolen": 8869,
      "ĠOfficial": 8870,
      "Ġdemonstrated": 8871,
      "ĠMoon": 8872,
      "aun": 8873,
      "Ġtrave": 8874,
      "Ġthrowing": 8875,
      "ĠWr": 8876,
      "Ġtwenty": 8877,
      "ira": 8878,
      "aval": 8879,
      "Ġ?": 8880,
      "Ġlocked": 8881,
      "ĠKnow": 8882,
      "ĠRoberts": 8883,
      "mans": 8884,
      "Well": 8885,
      "ĠStore": 8886,
      "Ġsalt": 8887,
      "ĠBow": 8888,
      "ĠBible": 8889,
      "ĠYemen": 8890,
      "Ġkm": 8891,
      "Ġdrama": 8892,
      "Ġcopies": 8893,
      "âĸĪ": 8894,
      "plate": 8895,
      "yo": 8896,
      "Ġfro": 8897,
      "Ġconsole": 8898,
      "Ġsurf": 8899,
      "ounce": 8900,
      "Ġballot": 8901,
      "Ġmonitoring": 8902,
      "Ġperforming": 8903,
      "ĠPatri": 8904,
      "ĠBelow": 8905,
      "sect": 8906,
      "pled": 8907,
      "AV": 8908,
      "Ġclosing": 8909,
      "flix": 8910,
      "89": 8911,
      "Ġcontrad": 8912,
      "Ġlegacy": 8913,
      "Ġbonus": 8914,
      "Ġchecks": 8915,
      "ported": 8916,
      "ĠDisc": 8917,
      "ĠResp": 8918,
      "irlf": 8919,
      "amacare": 8920,
      "encing": 8921,
      "Ġspoken": 8922,
      "Ġscan": 8923,
      "ĠJerusalem": 8924,
      "ĠHope": 8925,
      "ĠFriend": 8926,
      "Ġtransactions": 8927,
      "ĠAPI": 8928,
      "unes": 8929,
      "Ġprisoners": 8930,
      "mat": 8931,
      "pa": 8932,
      "irlfriend": 8933,
      "Ġpersons": 8934,
      "Ġuniversal": 8935,
      "ĠGraham": 8936,
      "ĠMach": 8937,
      "uction": 8938,
      "Ġcro": 8939,
      "comes": 8940,
      "Ġcriticized": 8941,
      "aus": 8942,
      "Ġscope": 8943,
      "Ġdepression": 8944,
      "Ġvisiting": 8945,
      "Ġpursue": 8946,
      "Ġsty": 8947,
      "Ġtape": 8948,
      "Ġrescue": 8949,
      "ĠBruce": 8950,
      "Ġbeauty": 8951,
      "mers": 8952,
      "isons": 8953,
      "ĠMuch": 8954,
      "ĠSupport": 8955,
      "Ġgrav": 8956,
      "oded": 8957,
      "annels": 8958,
      "irts": 8959,
      "WS": 8960,
      "aeda": 8961,
      "ultane": 8962,
      "ĠTele": 8963,
      "Ġauto": 8964,
      "pton": 8965,
      "ĠNintendo": 8966,
      "aware": 8967,
      "Ġspokesperson": 8968,
      "Ġtransportation": 8969,
      "61": 8970,
      "Ġmuseum": 8971,
      "Ġswing": 8972,
      "Ġyellow": 8973,
      "Ġsoldier": 8974,
      "Do": 8975,
      "ĠAz": 8976,
      "Ġprovin": 8977,
      "ught": 8978,
      "ĠBox": 8979,
      "Ġnomination": 8980,
      "esty": 8981,
      "Ġviolation": 8982,
      "backs": 8983,
      "Ġliterature": 8984,
      "ifer": 8985,
      "Ġcompe": 8986,
      "shire": 8987,
      "ĠTax": 8988,
      "Ġgal": 8989,
      "Ġentitled": 8990,
      "zing": 8991,
      "ĠDer": 8992,
      "ĠBeijing": 8993,
      "Ġaccomplish": 8994,
      "800": 8995,
      "Ġpolitically": 8996,
      "ĠQuest": 8997,
      "ĠSarah": 8998,
      "door": 8999,
      "Ġequality": 9000,
      "theless": 9001,
      "Ġsupplies": 9002,
      "Ġdump": 9003,
      "ĠLeon": 9004,
      "ĠBelg": 9005,
      "ĠArticle": 9006,
      "Ġ2020": 9007,
      "Ġpredicted": 9008,
      "onder": 9009,
      "Ġmidfield": 9010,
      "63": 9011,
      "ĠHand": 9012,
      "Ġdistract": 9013,
      "Ġrebu": 9014,
      "Ġparallel": 9015,
      "Ġgig": 9016,
      "uten": 9017,
      "erted": 9018,
      "Ġnaturally": 9019,
      "ĠAlexander": 9020,
      "ĠOpp": 9021,
      "iano": 9022,
      "Ġtracking": 9023,
      "ĠOntario": 9024,
      "ĠSpeaking": 9025,
      "aver": 9026,
      "serv": 9027,
      "ĠGalaxy": 9028,
      "Ġrequested": 9029,
      "ais": 9030,
      "ĠDenver": 9031,
      "Ġforecast": 9032,
      "Ġappearances": 9033,
      "Ġblocked": 9034,
      "ĠCrime": 9035,
      "Ġanxiety": 9036,
      "Ġrender": 9037,
      "atar": 9038,
      "Ġweigh": 9039,
      "Ġblast": 9040,
      "ĠEdward": 9041,
      "jo": 9042,
      "Ġ1994": 9043,
      "AF": 9044,
      "Ġrepresenting": 9045,
      "ĠPortland": 9046,
      "ĠCra": 9047,
      "ĠEmpire": 9048,
      "Ġurged": 9049,
      "Ġsmoking": 9050,
      "Ġacquired": 9051,
      "Ġclock": 9052,
      "Ġretirement": 9053,
      "Ġtransit": 9054,
      "Ġpopularity": 9055,
      "ĠChelsea": 9056,
      "App": 9057,
      "Ġhoped": 9058,
      "Ġmonthly": 9059,
      "ika": 9060,
      "ĠOthers": 9061,
      "ĠTrib": 9062,
      "ĠTrade": 9063,
      "scale": 9064,
      "ĠGirl": 9065,
      "Ġconcrete": 9066,
      "ĠChildren": 9067,
      "Ġcounts": 9068,
      "Ġwarn": 9069,
      "Ġhockey": 9070,
      "Ġrom": 9071,
      "assador": 9072,
      "Ġmarch": 9073,
      "ĠRepresent": 9074,
      "Ġwhenever": 9075,
      "Ġtactics": 9076,
      "Ġabsor": 9077,
      "62": 9078,
      "ĠBerlin": 9079,
      "Ġconventional": 9080,
      "ĠBan": 9081,
      "Ġhelpful": 9082,
      "ĠWould": 9083,
      "Ġfalls": 9084,
      "ĠScottish": 9085,
      "79": 9086,
      "Ġmun": 9087,
      "Ġhung": 9088,
      "Ġdocumentary": 9089,
      "Ġsymp": 9090,
      "Ġapproached": 9091,
      "ĠCro": 9092,
      "olph": 9093,
      "ille": 9094,
      "ĠDick": 9095,
      "Ġhydro": 9096,
      "ĠAtlantic": 9097,
      "Ġmembership": 9098,
      "ĠHold": 9099,
      "Ġinequ": 9100,
      "iate": 9101,
      "Ġbanking": 9102,
      "arms": 9103,
      "ĠLeader": 9104,
      "ĠHur": 9105,
      "aa": 9106,
      "Ġskept": 9107,
      "73": 9108,
      "Ġrear": 9109,
      "trans": 9110,
      "berry": 9111,
      "Ġemployed": 9112,
      "Ġfrequency": 9113,
      "Ġsatellite": 9114,
      "ĠJonathan": 9115,
      "ĠPalestinians": 9116,
      "Ġracism": 9117,
      "Ġwider": 9118,
      "Ġves": 9119,
      "Ġresponses": 9120,
      "bow": 9121,
      "ĠAssociated": 9122,
      "Ġ1992": 9123,
      "ĠJean": 9124,
      "Ġramp": 9125,
      "AND": 9126,
      "Ġthorough": 9127,
      "ĠTotal": 9128,
      "ĠMess": 9129,
      "Ġmortg": 9130,
      "ĠCould": 9131,
      "Ġgrid": 9132,
      "Ġcenters": 9133,
      "UST": 9134,
      "ĠBeing": 9135,
      "press": 9136,
      "Ġinvestigations": 9137,
      "ĠOcc": 9138,
      "Ġdub": 9139,
      "Ġhyper": 9140,
      "fol": 9141,
      "mind": 9142,
      "ethe": 9143,
      "Ġphotograp": 9144,
      "Ġrestaurants": 9145,
      "Ġwaters": 9146,
      "Ġtips": 9147,
      "ila": 9148,
      "ĠRemember": 9149,
      "asty": 9150,
      "Ġmeasured": 9151,
      "high": 9152,
      "ĠPD": 9153,
      "Ġsequence": 9154,
      "Ġexperiments": 9155,
      "ĠCode": 9156,
      "ĠElizabeth": 9157,
      "ref": 9158,
      "Ġpatch": 9159,
      "ĠIron": 9160,
      "Ġcance": 9161,
      "through": 9162,
      "Ġmarg": 9163,
      "ĠBureau": 9164,
      "Ġquote": 9165,
      "Ġcapabilities": 9166,
      "Ġhealthcare": 9167,
      "Ġdismissed": 9168,
      "ctr": 9169,
      "ĠPriv": 9170,
      "Ġupgrade": 9171,
      "rapped": 9172,
      "gov": 9173,
      "Ġdifferently": 9174,
      "Ġletting": 9175,
      "itter": 9176,
      "Ġabroad": 9177,
      "Ġdrove": 9178,
      "Ġsaving": 9179,
      "AY": 9180,
      "Ġbutt": 9181,
      "archy": 9182,
      "Ġwaves": 9183,
      "acket": 9184,
      "ĠUber": 9185,
      "Ġreliable": 9186,
      "Ġassign": 9187,
      "Ġyeah": 9188,
      "Ġdrone": 9189,
      "Ġpreparing": 9190,
      "rec": 9191,
      "ĠEag": 9192,
      "ĠLt": 9193,
      "Ġunpre": 9194,
      "ĠHeart": 9195,
      "ĠDutch": 9196,
      "Ġobs": 9197,
      "Ġprotocol": 9198,
      "Ġreverse": 9199,
      "Ġgrade": 9200,
      "Ġfocusing": 9201,
      "Ġsenator": 9202,
      "Trump": 9203,
      "ordon": 9204,
      "ĠBeck": 9205,
      "ested": 9206,
      "Ġclassified": 9207,
      "Ġassessment": 9208,
      "Ġcivilian": 9209,
      "dr": 9210,
      "ĠDO": 9211,
      "Ġtargeting": 9212,
      "holders": 9213,
      "Ġconservatives": 9214,
      "Ġsavings": 9215,
      "Ġokay": 9216,
      "ĠMcK": 9217,
      "Ġentreprene": 9218,
      "orous": 9219,
      "Ġdeny": 9220,
      "ĠStaff": 9221,
      "Ġintroduction": 9222,
      "cut": 9223,
      "Ġtestimony": 9224,
      "emed": 9225,
      "ĠBrexit": 9226,
      "Ġreforms": 9227,
      "ĠBul": 9228,
      "Ġax": 9229,
      "ĠNetflix": 9230,
      "Ġphenomenon": 9231,
      "hop": 9232,
      "Ġsurely": 9233,
      "Ġlandscape": 9234,
      "Ġprosecutors": 9235,
      "Ġartific": 9236,
      "Ġcelebrate": 9237,
      "Ġpig": 9238,
      "Ġsmell": 9239,
      "icism": 9240,
      "Ġpainting": 9241,
      "aria": 9242,
      "Ġintroduce": 9243,
      "ĠHu": 9244,
      "ela": 9245,
      "Ġmargin": 9246,
      "ĠCaptain": 9247,
      "Ġcongressional": 9248,
      "ĠDoctor": 9249,
      "Ġpresidency": 9250,
      "Ġbrilliant": 9251,
      "Ġsemi": 9252,
      "Ġdust": 9253,
      "ĠEst": 9254,
      "Ġroof": 9255,
      "Ġwealthy": 9256,
      "ĠTes": 9257,
      "ĠTennes": 9258,
      "ĠHawai": 9259,
      "Ġrush": 9260,
[...]
